FC
0E
FF
ED
D0
15
1C
25
32
0C
1F
F8
F3
1B
1A
FC
02
04
06
1F
E5
EB
DD
E2
F4
0D
EA
F4
FA
31
D6
DF
E6
34
3D
E2
0C
33
3F
2C
02
14
14
12
F9
F1
F9
0C
0A
EA
DF
FC
04
24
19
17
30
16
1B
21
18
15
FC
07
1B
05
F7
DE
DA
EE
FF
D8
01
FB
E1
0C
05
05
D3
EF
FB
30
F0
E6
F3
07
1E
16
E3
CC
15
0E
30
EA
0A
E5
28
32
0E
01
2F
16
32
1D
1E
15
1E
0F
1A
0E
F2
08
FB
04
09
E2
C8
E6
CB
FB
D8
EA
E3
00
F9
1D
F4
F2
01
1D
21
20
1A
29
EF
1B
11
13
FC
FA
12
25
10
0A
D2
21
09
00
1C
F2