F4
F9
F9
06
04
03
F1
FA
FE
FD
19
0E
FB
F4
05
0C
13
16
0E
0B
EB
FA
04
04
07
F9
F3
0F
0C
FE
03
FE
F4
00
ED
0B
04
E8
FA
FE
04
FA
FA
0B
02
F5
FE
FC
F4
F7
FD
07
0B
01
F2
F8
FC
03
FE
07
03
EC
E8
FB
09
03
FF
02
04
0C
F9
04
0E
0F
FE
04
FF
EE
0A
14
01
13
03
FC
13
FA
1D
18
FB
F9
F8
0E
16
00
FD
EA
EB
EF
FA
F8
ED
F1
0A
FB
04
F9
E8
EE
09
09
06
F0
DA
E8
02
FF
00
0D
0D
06
EE
15
21
1A
08
08
FA
FF
F9
08
0C
00
FF
EF
F3
F8
0D
07
05
F5
F4
F6
0E
11
0C
F4
EB
FE
05
0B
FC
01
05
07
05
01
07
15
08
03
12
0D
11
01
04
FE
E6
F9
F2
EE
FB
F4
FE
0E
FE
FC
FF
02
F0
F7
08
10
0A
15
04
06
FA
06
FF
08
D7
E7
F8
FF
0B
F3
FC
08
FB
F4
00
FE
F8
00
0C
FB
0B
05
0B
03
15
11
05
05
12
FF
EC
EB
F1
05
E4
EE
05
10
04
FC
F8
08
0E
F7
04
07
09
FB
07
F6
E9
EA
EC
E9
00
F2
F1
F8
F1
0C
14
07
FD
FD
E1
F1
02
03
0D
FA
02
03
04
1A
1C
19
29
2C
1F
08
20
1F
FC
01
EE
D9
F0
F5
05
03
03
00
FC
FA
02
05
04
04
0B
F1
FE
EC
EF
F4
F2
EE
F1
EC
F4
06
03
0C
0D
00
F3
FD
12
10
06
F6
F7
09
0C
FF
FC
F4
FE
F9
00
0F
F1
E7
FC
02
0B
FE
F4
02
0A
F9
02
02
09
F5
FB
FF
0D
06
ED
F4
EB
05
1F
00
F4
F1
08
08
DD
09
F8
0A
FC
E4
FE
FD
0C
F8
F6
F5
05
07
FA
E9
F6
F6
FF
F9
FD
FA
F0
0B
05
F6
04
04
09
FC
F2
FC
F2
06
18
21
05
F5
F2
08
1E
05
E8
E4
04
19
F9
EB
E4
F6
1C
F8
FD
00
FD
12
0E
FD
06
FD
F7
FA
FF
11
04
DB
03
FD
FB
EE
C8
17
F1
F3
FC
E2
0E
03
04
FB
EC
FB
04
0A
0D
10
F3
FB
F0
07
1C
FE
F7
EC
08
1D
FA
07
FC
05
0F
0A
FF
F7
FA
F0
F6
F9
FE
0C
FE
F7
F1
F0
FE
F7
0E
14
11
04
00
F7
23
2C
1C
1A
F9
F0
FC
FF
FA
0D
04
15
02
F3
09
08
F0
F2
EE
FD
04
09
01
0A
F6
FB
FF
0D
FC
DA
ED
F0
F7
F5
F8
FC
00
04
FA
F5
F7
FC
04
0D
02
FE
EC
FD
09
0E
0A
19
18
12
EC
F9
FB
FA
08
FE
01
EC
E6
F6
0A
1A
04
F8
FB
0F
16
22
11
0A
FD
EE
0A
03
04
F9
F2
DF
F9
FC
ED
E8
E9
FD
07
F0
DF
CD
F7
03
FF
F2
E8
E5
03
F9
10
28
29
0B
F7
02
1C
23
19
08
02
00
FE
FB
0E
0C
02
F6
EE
F4
05
0B
09
FE
F1
EE
0F
10
04
EE
E1
E6
F7
FF
F7
F7
07
F5
FF
0D
FE
02
EF
F8
0F
FD
F2
07
04
F0
EA
03
0E
10
02
02
0B
02
0A
F8
00
EE
FD
FB
EE
E5
F4
F3
F6
F4
F4
05
12
FC
F6
06
1D
10
D7
1E
1D
12
F9
FA
09
03
08
F5
00
0A
F5
F9
E8
FB
02
F3
F5
13
06
EC
EE
0C
14
09
05
09
17
07
02
F3
F4
FE
F1
FC
F7
FA
FC
FD
02
01
02
07
FF
01
0A
08
06
F7
F9
F5
0D
14
07
E3
ED
04
0D
08
14
FC
09
16
06
FD
00
F7
04
EC
0E
EC
F3
E0
09
22
F0
EC
F7
08
02
05
EF
F4
EE
E9
07
FD
E8
EE
F1
FD
F3
F8
0B
0E
F3
01
18
18
FC
F7
16
0F
FB
E6
08
0D
18
05
EC
F1
03
18
0E
05
F9
F9
06
0F
08
11
F3
FA
FB
02
09
00
07
F2
F5
F4
F6
FB
00
EF
F7
09
01
01
F2
FE
F2
F8
0B
F9
F3
00
F4
00
FF
07
09
FE
FB
05
04
08
F3
E9
EB
0A
16
19
FE
F1
FD
FE
14
05
F9
F9
EF
FC
12
0A
FD
02
FA
00
FA
FA
0A
0C
1B
04
FA
FA
FE
0C
1C
09
FF
E6
F1
10
04
09
05
FA
03
F9
17
09
F3
F7
0C
1B
02
E6
F1
02
22
2A
15
F4
DF
FF
15
2B
08
09
EC
FD
0F
03
1C
FD
F9
06
F7
FF
F3
0A
0C
09
F3
F1
FE
04
08
09
F8
E9
F6
0F
02
F9
FB
F0
F5
FD
0A
12
03
FC
ED
01
FE
01
03
F4
EF
07
07
08
04
F3
01
FD
F9
1C
16
12
0B
08
0E
1C
20
0A
03
FC
03
01
0A
F3
FC
00
00
F5
F1
F7
EF
EF
EF
F3
F4
F8
FA
15
0B
FF
02
10
14
FF
F9
00
FF
FB
09
FD
F5
0F
0C
FE
F1
FB
F4
F3
FB
03
00
EB
F3
00
04
0A
14
1A
0C
F7
03
03
02
0B
FC
04
FD
FB
06
02
0F
02
F5
F7
19
19
10
05
FC
09
FD
FA
EE
F4
F9
FC
FE
03
F9
EA
FA
0C
0D
04
E7
F3
04
05
02
FE
F1
E6
DE
04
02
1C
2B
2A
11
FA
F2
00
06
F8
F3
F6
EE
F9
EF
0C
FA
F6
F2
FA
05
06
06
03
07
08
0A
15
12
02
EC
F1
00
02
07
F7
FB
11
11
03
EC
FC
15
F9
FC
ED
0B
09
F2
02
F9
0A
08
01
FB
01
13
14
09
F0
1D
1D
04
01
F8
1F
09
DC
EC
06
0D
FF
E4
ED
FB
03
FF
FA
F0
F9
FF
00
07
FE
F6
F9
FE
19
05
FD
07
02
05
FD
FF
0D
05
F2
EE
FC
00
FE
F9
F7
F7
F1
FE
0C
FA
06
FC
01
08
F0
F5
F1
02
16
EE
FC
F8
11
12
F7
F4
FF
18
10
F6
F4
E7
CA
D2
03
0B
E1
D2
F7
0D
11
F2
F0
00
05
18
FB
EE
E9
F6
08
01
06
05
09
0A
F1
0E
0B
0E
FD
FB
1A
15
FF
F6
FA
14
10
E7
F1
04
FD
00
EF
EC
F7
00
FD
02
FA
F2
00
04
0F
FB
FA
DF
F2
01
FD
EE
F1
F5
12
12
E7
F9
08
0D
F6
F7
F9
FF
01
E6
00
FF
08
02
F0
E9
F8
10
00
E2
DD
1A
22
FB
D8
FB
1F
FE
CD
F5
04
0E
F7
E5
F9
03
07
0E
01
FC
EE
ED
FC
F8
02
F0
FF
05
13
F4
F2
0F
11
02
E6
04
01
02
E8
F5
F7
D9
FA
0B
03
E4
E3
FA
10
F9
F9
FA
06
0A
F4
F4
EB
09
04
EF
F3
04
1B
FC
EB
FD
0F
14
05
E9
03
0F
F1
E2
FA
FB
D7
E0
FF
06
01
FF
02
08
01
E8
FF
FB
F0
E9
F3
F2
0A
0F
0D
F4
E7
FF
07
07
EC
02
18
10
EE
F6
01
14
07
E2
07
0C
0F
01
F6
F5
EA
FC
F8
F2
FC
EF
EC
F5
FD
0D
1B
18
0F
1E
FC
FE
09
FC
FB
03
01
F5
E8
ED
FC
0D
06
F4
F7
FF
FB
FC
09
F9
0E
04
0B
26
10
EF
D7
F7
FB
03
EF
EB
EC
F8
FB
F9
06
0C
06
05
F9
FA
F5
F4
F5
10
10
0C
0B
22
FC
07
11
15
18
EB
DF
DE
D0
F4
F0
F0
01
F4
F1
02
0C
0B
07
08
06
0D
0D
05
F8
00
0C
00
F7
EC
F9
14
0F
03
F7
04
F3
0A
0F
F7
EE
EA
F9
DC
EC
0A
11
01
11
1D
13
0C
24
3A
37
ED
E7
EB
E9
E1
FE
F5
FF
FC
FB
05
FD
02
05
03
05
F2
F8
07
09
F7
F2
F8
EB
EA
F0
07
F9
F8
F8
09
01
EF
FB
05
11
01
05
F1
F6
FA
0B
09
F8
04
02
0A
07
FC
F6
EE
FF
FD
FF
FE
FC
F8
08
FF
02
0D
0F
F6
02
00
03
05
00
01
07
FE
09
07
FA
EA
F6
F8
01
01
FF
05
FB
FA
11
09
07
04
FE
F9
00
01
F9
08
06
04
07
01
03
FD
F3
0C
0E
04
06
F4
14
0C
03
F3
04
0F
08
12
FA
EF
F7
FF
15
10
FD
F9
02
01
06
00
EE
03
FD
02
05
EF
E9
F7
0A
0E
FE
DF
E2
E0
F1
F4
EE
E4
F9
FD
F6
FB
F6
02
F8
01
FD
FF
F4
F7
06
10
FF
03
01
0D
14
10
FF
FB
FC
09
05
01
01
F1
F5
0B
0B
F7
EE
FF
FF
04
00
0A
08
FA
FD
12
13
F6
EA
01
11
0A
ED
E3
08
12
09
F1
EC
13
01
F6
E6
06
0B
02
FF
EF
0B
1E
01
FE
E5
12
11
03
EB
F8
1B
08
EE
ED
02
13
F8
FD
01
09
FF
F3
E8
FF
FC
05
FD
06
0F
F1
F9
FC
14
FB
F2
04
08
0F
F9
06
00
0E
03
E9
01
01
03
FC
0B
02
E8
15
12
09
E9
F6
12
09
05
EB
EC
12
13
EC
EF
F6
14
15
F5
F7
10
14
06
F6
07
EF
E5
D2
11
FF
E0
CC
F0
12
F9
DC
EC
F1
1C
F2
F8
F1
FF
EA
E6
F8
FB
0A
0F
F4
EC
19
15
0E
E8
F0
12
07
08
E9
05
0C
0A
F5
F7
03
06
01
FE
F9
F2
05
04
04
17
04
FF
F6
06
F3
EB
F9
0E
FC
07
10
1B
13
0F
10
15
F9
F4
05
FE
00
F8
0C
18
FB
ED
E5
E6
E5
DF
EB
F8
01
04
14
14
03
EB
1A
0D
FD
FD
F2
06
02
08
04
FD
0D
02
01
04
EE
04
F3
F0
F1
F8
EF
F8
1B
1D
0E
14
18
19
FB
EE
15
01
FA
FD
00
FC
F1
ED
F8
09
EC
00
05
FE
05
FE
EE
FC
FA
F9
08
F3
07
08
F2
FA
04
F8
F0
F7
FC
11
0E
0F
FF
0E
15
03
ED
EF
EF
EC
07
1B
18
08
1A
16
11
02
05
06
EE
F2
02
F7
F7
F1
E7
F1
EE
E5
F4
0A
00
F6
10
13
06
0C
1C
15
FD
04
00
0A
F7
F7
FB
F7
0E
14
FB
F2
FB
E7
EC
D6
DA
F2
08
06
09
06
01
0A
03
07
11
08
05
FC
FC
0C
04
F1
FD
EC
F8
FB
DC
D3
D2
F7
00
F5
04
02
0C
0C
05
FF
06
10
FD
F7
07
F7
F6
F3
0A
0B
FB
05
0D
F1
EF
E1
EA
F8
03
F8
FA
06
10
0C
0B
18
17
05
FC
00
00
0A
00
F0
EA
EA
E0
E8
E6
F6
FF
EF
F5
F8
02
0C
FD
F5
F9
FB
08
FC
06
01
06
0E
11
FE
31
21
16
07
0E
1A
17
04
F3
E3
F5
EC
ED
F5
05
08
0A
15
08
16
FA
F5
FA
0C
0E
E5
F8
F3
DE
EF
E7
E0
DE
E7
F1
04
FE
FD
06
13
01
FF
06
0B
0C
F2
FF
FC
07
FD
F6
F2
08
04
02
F9
12
16
00
0F
FD
11
1A
04
F6
EF
F8
EA
DB
E0
FB
FA
F3
F5
E5
F9
0B
FB
FE
02
0B
0E
09
13
03
00
F5
FE
E9
E0
E9
E2
DA
DA
CB
FF
EE
ED
DA
DA
EF
03
02
0E
13
00
11
13
FF
0E
14
11
1C
0F
00
F3
EF
E6
E3
E0
FB
F2
EE
E2
CD
FC
09
0F
01
04
04
FD
FE
FD
F6
FD
02
F3
F0
E6
08
0C
02
EA
E1
02
0E
0E
11
0D
D9
E3
DC
F8
11
F4
FC
0B
05
0B
1B
19
2C
12
15
06
03
05
04
F6
FD
02
DE
E5
E2
EC
06
0D
0A
07
01
09
0A
10
FC
FA
F6
07
EA
E9
EB
F6
FE
E0
E1
F6
08
08
F9
F1
E3
FC
0A
0A
09
0B
E7
EC
F6
01
21
1D
0C
F2
E0
FC
07
0A
0F
FB
FB
09
04
1C
1C
F9
FD
0E
16
19
F6
DB
F6
F7
FC
01
04
F4
E2
DC
01
FC
F3
F9
F0
0F
03
0A
0E
FE
F4
FC
0D
0A
01
F6
E4
F1
F7
0A
0D
EA
E0
D7
ED
03
02
FD
01
ED
09
0F
0B
0E
06
08
EC
E1
FA
F2
22
17
06
FF
F4
0E
19
08
0B
09
F5
04
1A
13
10
FD
06
09
F6
01
E2
FC
0C
FF
03
00
F2
F6
04
12
11
01
E4
D4
F3
14
04
0A
F4
E8
F2
FA
13
0A
0A
04
E9
E5
EC
FB
03
FF
F7
E7
F7
07
06
11
01
F0
0F
09
18
03
0E
03
0F
0E
FE
01