FE
02
01
04
00
15
07
F8
03
FF
FD
04
01
FB
F7
01
0C
07
0B
0C
07
01
00
08
22
07
09
05
0B
03
01
F3
FF
F7
F6
FC
0A
11
FE
F0
0A
0F
FD
00
04
0E
15
0E
02
FD
FC
FD
15
11
0A
04
07
14
FE
F8
04
F1
F3
FA
09
01
09
01
ED
F6
13
08
FD
FE
01
02
03
F6
F4
00
FF
07
FA
FD
FD
05
F6
01
1C
13
FE
02
03
07
FA
F7
07
04
02
06
F3
0A
10
FC
06
F2
F2
06
10
03
F7
F0
FC
F7
00
05
FF
07
FB
06
E4
F5
08
09
E9
FC
FE
03
05
F7
F4
F5
F8
01
10
12
F6
FC
FA
FE
0B
0A
09
06
00
FC
07
0D
12
0F
05
11
0D
01
01
F4
FE
F8
04
EE
FF
01
05
01
0A
12
03
03
FB
08
0F
00
F1
F6
FD
03
02
FE
F3
00
07
06
FA
F4
FB
05
EE
F1
F4
0A
03
0D
15
0D
0B
07
01
03
05
21
E9
08
03
FC
06
02
04
FE
0B
F6
04
12
FE
01
0A
08
F7
FE
FA
FC
0A
03
04
F4
01
05
06
09
FD
01
FE
15
07
FC
0C
04
FA
FA
F5
F1
FA
06
FE
05
EF
01
FB
F5
0A
EE
FD
0E
11
F9
F4
10
00
FB
FF
02
FE
09
0B
FD
08
05
01
FA
0A
F7
FD
01
F2
F1
F5
08
F5
F8
FA
FA
08
FB
FA
F7
07
03
0A
FD
FC
00
F4
F7
FC
13
EF
F8
07
12
00
FB
FE
F9
07
12
02
F8
F8
F4
F7
06
FC
EE
0E
0A
F3
EE
FD
F6
01
F6
0D
FA
0B
03
F1
F7
0A
04
F9
01
F4
FD
FB
FC
07
07
06
01
06
0E
FC
0F
F5
01
FF
0B
13
0A
0C
08
0B
EB
01
FE
06
FF
FC
11
04
F0
03
FD
F6
EE
08
0F
02
F6
01
FB
04
05
0B
F6
04
FA
F5
FA
16
FA
02
FC
FC
03
05
F1
FD
F1
F3
EF
0F
02
F4
FD
04
F0
FF
06
09
FE
FE
FC
FB
FE
F3
FE
06
F1
FB
12
FF
D9
01
0E
09
F6
01
03
03
08
F6
07
FF
03
0F
01
09
04
01
FB
F8
0C
F7
FE
F4
F8
01
F9
02
FF
01
11
F5
E0
04
03
F4
FF
08
0E
03
02
F0
00
0E
1E
EA
FA
06
FF
F5
F8
00
0D
14
07
0C
F5
F2
F7
07
05
F9
F2
03
EB
07
FE
EF
DA
EF
FA
FB
F9
FD
FD
02
07
F1
FB
F7
01
FA
08
00
F4
F8
F3
FD
0B
FA
FF
FC
F3
16
03
F6
0A
0D
F5
02
04
FC
01
04
07
FC
04
03
09
E5
F3
01
FF
EE
FF
0B
09
05
FC
FD
F4
00
FC
F5
08
FB
00
F7
FA
EA
03
01
03
07
0F
FA
0E
07
0E
FF
05
13
0C
FD
02
05
00
EE
FA
F9
FC
F9
FF
F4
EE
F1
05
E2
F3
F7
F8
F3
03
0E
07
00
FD
0B
03
FC
12
04
03
0E
09
07
0A
EA
01
13
15
FD
09
08
0A
F7
0A
01
06
FC
F8
00
0E
03
F6
F9
05
FF
F6
00
04
06
F7
F8
0B
E8
FB
07
0A
F6
FB
0B
0D
09
06
0B
F4
0A
08
08
F3
F7
09
0C
FA
10
04
FB
0A
16
0A
09
05
FD
03
03
F9
09
0B
03
F7
F7
F4
F4
F9
FB
FF
F9
FA
F3
FA
F0
F6
E9
EB
F1
01
FF
03
FF
0C
FE
09
09
01
04
FA
06
0B
04
0B
F9
00
F9
07
08
FD
05
00
F9
00
02
0F
0B
0B
00
13
04
0A
0E
0B
F2
FA
FE
FB
F4
F5
FD
F8
FE
05
FA
05
02
FB
F2
FB
03
0A
01
0C
ED
EF
00
03
05
03
FC
FB
00
09
FE
FA
F1
06
06
01
06
F5
01
02
03
EE
F9
00
FB
F8
F0
07
07
03
07
07
0F
00
02
F7
0D
0A
EF
06
07
04
F1
FC
0E
07
F7
FD
FC
F9
FC
00
FF
FF
03
FB
FA
05
FB
04
F7
07
00
F7
02
03
FD
06
FD
FD
F9
FA
FD
FC
F8
08
F7
FD
FD
04
FF
F6
FA
FF
05
03
F6
F8
03
04
F9
F9
FB
F6
F6
FB
FE
FA
02
FB
FE
FF
F9
04
F4
00
F5
F4
04
02
06
FD
01
05
FD
FA
FE
FF
0B
00
F8
FD
FA
02
FD
F5
02
04
F8
F6
FD
09
04
04
00
F4
04
F8
08
FB
00
03
01
FC
00
FC
F6
F8
F7
FB
03
FF
FA
01
FE
F5
FA
FE
FF
FA
FD
05
01
F8
F6
FD
03
FF
F8
FE
FD
07
F8
FD
F9
00
F8
F7
FA
04
F9
FB
FB
FD
F8
F7
FF
F9
F9
05
F8
01
FE
FD
FC
FF
00
FF
01
01
F6
02
06
FE
02
F8
00
06
01
FC
04
00
F7
06
F9
04
FE
FE
03
FD
02
02
04
FA
02
FA
06
02
01
05
FC
00
FF
F8
FA
FE
05
FD
FC
05
01
F7
FC
FC
F6
FD
FF
03
FB
F8
00
F5
FD
FA
FB
06
01
01
03
01
F4
FF
03
04
FC
FA
F6
FB
FA
F8
04
04
00
02
02
00
FA
FB
FF
05
05
01
08
01
03
00
F3
FF
FC
FE
F5
F6
F8
F7
FB
F8
04
F6
FC
FA
F8
01
F8
F7
03
FE
00
F7
03
05
01
06
F6
FF
FA
FA
00
FF
FE
01
F8
03
F8
02
F8
FF
FD
FF
02
02
F6
F6
04
F8
04
FF
02
03
02
FD
02
05
F8
02
04
FA
F5
FE
FF
01
FE
07
FE
F8
FF
FF
FB
05
01
FA
FA
06
FD
F7
FD
F9
F8
FA
08
F6
FC
02
05
FC
FC
FF
FE
FA
F7
F8
07
FE
FE
01
FC
FB
F5
01
02
04
F6
FE
FC
FE
F7
F9
FF
03
F6
03
05
FF
03
03
05
F7
03
00
00
F6
02
04
FA
F9
FA
03
F8
FF
F7
03
FD
F7
00
FD
04
F8
FD
FA
F8
04
F7
F7
FD
F7
FF
FB
FA
F6
01
FB
02
F6
01
FF
02
F7
FF
FE
F7
FD
FE
00
02
03
FE
FA
05
02
FC
03
04
FA
FD
FD
FD
F6
05
FF
FD
F8
01
05
02
F7
F7
05
FA
05
FB
FB
FA
01
FE
FD
F5
FF
F8
05
01
FD
FB
FF
01
FF
04
02
02
FB
F9
FA
FA
F9
FB
FD
02
01
FF
06
FC
00
FB
03
FB
FD
FB
FF
02
01
FB
FB
00
03
F8
01
05
07
01
FC
FD
FA
02
01
F9
FA
FA
02
07
FD
FC
FF
02
02
FA
F8
F9
FA
F6
FD
05
F7
02
FD
05
05
F8
FF
05
06
03
03
07
FF
FA
F8
04
FD
F6
F7
05
01
F3
FD
06
0D
05
FA
04
FC
F4
00
F9
01
F2
FF
0C
02
F4
FC
01
0D
05
11
06
00
05
FF
09
0B
07
FB
06
0E
05
04
FE
E8
F5
02
06
F6
F5
00
04
07
F7
F4
07
02
FB
FC
03
16
04
00
02
02
FF
07
00
03
F8
07
FE
03
05
03
F7
F8
01
0D
FF
FC
F6
0D
04
FA
F5
06
EF
F4
F9
FD
00
04
05
05
FC
03
02
F7
FA
06
EC
FC
02
FE
E9
F5
FD
0A
07
12
07
FD
09
08
03
F8
0E
04
F8
06
01
14
06
FF
0C
10
11
08
06
FA
02
00
0C
01
F7
FF
0B
FD
01
F1
08
FE
F1
EE
F7
FD
07
FB
FD
F5
0A
12
F9
04
07
13
FD
05
02
08
FF
FB
04
08
05
F6
F9
FA
FB
05
03
FB
0B
01
09
0A
F9
01
08
13
05
FA
12
1C
06
01
05
F9
00
FC
F2
FD
F9
FD
F4
FB
06
F9
F9
05
05
0D
FF
F3
01
04
FE
F1
F8
09
13
F4
06
04
F5
0C
03
0F
07
05
0F
06
04
ED
08
FE
02
EB
FA
FF
0C
0C
01
FA
07
12
09
04
0E
02
00
FE
08
13
F7
FC
01
ED
FC
02
FE
F7
12
09
06
04
04
FF
07
FD
03
14
0A
09
E5
F2
0E
02
09
0A
09
F5
09
FF
01
04
11
04
F2
09
0A
FE
F3
EE
02
06
06
19
03
F5
01
08
FA
FF
00
F5
11
0D
FE
01
05
FB
FE
FD
1E
00
FB
08
13
11
0D
14
F1
FD
03
01
10
F9
F9
FC
0E
03
F4
FC
FD
FA
05
EF
F1
E6
E7
E9
FD
F7
FD
F3
0A
F6
FB
05
14
04
F9
F5
0E
FF
FB
02
08
0A
F8
FA
01
FC
13
00
02
0B
0F
11
DC
E7
03
F7
02
F2
FA
12
FB
06
F6
12
0C
FA
01
06
01
F2
0B
08
03
03
06
10
17
08
06
16
08
EC
F6
0B
03
00
FC
0D
09
0B
01
FA
05
F2
FA
FE
10
FA
07
18
F4
F0
F9
00
FC
F5
01
FF
14
05
F9
FA
FE
03
03
F9
ED
02
07
07
02
FF
0D
15
FF
FE
01
12
F9
FD
09
0B
F9
10
FD
03
03
FA
06
08
0C
0C
E7
EE
08
F0
09
13
06
EC
F8
FD
07
01
FC
10
01
EE
F7
E8
F8
FF
0A
F9
0B
02
F8
06
FE
EC
F0
0F
07
06
FC
0C
FA
F0
F6
08
E8
E9
FA
0A
0C
0C
FA
FC
01
FD
FD
F5
ED
06
13
01
CF
E5
0A
FC
F9
FC
00
04
06
04
03
F7
FE
07
FD
FB
F7
F9
04
01
03
FE
02
FC
F9
F8
FE
05
FF
05
01
F8
00
01
FC
FC
FF
00
FF
FB
F9
FF
02
F8
02
04
03
FC
04
F7
02
04
04
FD
F9
06
02
FE
F8
00
FD
F9
06
02
FD
FE
FA
F7
01
F7
05
F8
03
F7
05
07
FA
03
FC
FB
01
04
00
05
00
F8
04
F7
06
00
FF
F9
FA
FC
F9
FF
FD
FE
FF
F9
05
FC
04
FD
03
F8
05
06
04
FF
05
00
F8
01
04
F8
FC
FF
FF
03
FA
FE
FE
FE
02
03
03
04
02
FA
F7
F7
07
04
00
05
00
FB
02
FC
05
FE
FD
06
05
03
04
06
02
FD
FD
00
F9
05
FD
02
F9
02
FA
02
04
06
FE
F9
FA
F8
F9
FE
FF
FF
07
FE
FB
06
FC
04
00
FE
FA
FA
07
02
00
F9
06
FB
03
FD
01
04
00
FB
F8
03
05
03
05
F8
00
FA
FE
FB
04
FA
FE
05
FF
FE
01
FF
F7
01
F8
01
FB
F8
F7
00
F5
02
06
00
F8
FC
F7
FE
05
FA
01
04
01
FD
F7
F9
F9
00
03
FA
FF
06
FE
02
01
FC
FC
FA
02
FD
00
FB
F8
FC
FD
02
F9
02
02
02
FD
04
F6
FD
FE
03
03
04
F8
F7
FB
FB
FB
F8
FF
F7
FC
00
FE
FB
00
F9
01
02
FF
F9
03
FE
05
F7
00
02
FF
FE
F8
02
F9
04
01
FD
FB
01
00
F9
03
02
FB
03
01
F6
04
F8
06
06
FD
FA
00
F9
F8
06
FE
02
FE
FF
02
F7
01
FF
02
F6
01
F9
FA
03
FB
FC
00
FA
F7
03
FD
FE
00
FC
FD
FF
FD
F7
FB
FC
04
01
FE
FE
FC
04
FF
04
04
FC
FA
04
01
FB
04
FC
06
FC
F6
FC
02
00
03
05
FF
01
FA
FD
05
F6
00
00
03
F8
05
F9
F7
02
FD
FB
FD
01
05
F9
FC
00
04
FC
05
F8
F7
02
01
FB
03
03
F8
FD
03
03
FC
F8
FD
F7
F5
FB
F8
04
FD
02
00
00
FD
01
FB
FD
FD
FA
00
04
FF
F6
FF
FD
01
F7
FC
FB
01
FB
F9
FF
FF
03
FA
FF
04
02
F8
F8
F9
02
F6
F6
03
F9
01
FC
FD
FF
F8
FC
FC
FA
02
FB
03
F8
F7
FD
FC
FF
05
FA
FD
FE
FB
FB
F9
04
F8
00
02
05
FF
FF
F9
05
FB
FF
00
01
FD
FB
00
FF
FB
F8
FE
FC
FB
FA
F6
F9
F6
01
FE
04
03
03
00
F8
04
F6
02
F8
F5
FE
FB
F8
F9
F9
FE
FF
02
F7
FC
F9
01
FB
FD
F5
F5
F5
FB
F5
FB
FD
FA
FC
FA
08
FE
03
06
04
04
F9
F8
03
02
FC
01
FF
05
F8
FB
01
05
F7
FB
FF
F9
F5
0A
03
02
F8
06
F9
00
FE
F7
03
04
02
09
07
F8
FA
01
F6
02
FF
FB
00
F9
06
00
F8
FF
00
F6
02
FD
FA
04
03
04
00
04
F8
00
F8
01
FA
FB
05
F9
FE
04
05
09
FE
FC
06
05
F9
FA
FE
FE
04
FE
FC
FF
FE
02
02
FD
00
F4
00
F7
02
F8
04
FF
FE
FE
06
02
02
03
06
F4
FF
FB
F6
F6
F8
F6
08
F8
05
F8
04
FA
FE
F9
02
03
00
02
03
FE
FE
FF
05
03
00
FA
03
FF
FF
04
FB
F9
04
FF
F7
01
FC
FC
FA
00
01
01
F8
FE
F8
FF
01
FA
03
FB
FE
03
04
00
F8
FD
F7
F8
06
FB
FB
FE
FA
05
01
FA
FE
F7
07
FB
05
FA
03
FA
02
FD
05
01
FF
F7
01
FF
FA
F9
FD
F7
F9
FE
02
FA
00
FE
04
F5
FC
05
F6
02
F7
FB
00
06
FA
FF
02
FF
F7
FB
02
FE
01
F5
FC
F9
03
06
FF
FA
02
F7
00
00
FE
FE
02
00
F6
F4
03
F7
F8
00
FC
02
FF
FD
F9
00
00
FB
FF
FA
00
01
00
FC
FD
FA
F5
04
FC
FD
01
03
FC
04
01
04
FF
FC
F6
01
03
FA
01
04
FD
04
01
FE
FF
FB
F9
01
FB
F8
FB
FA
04
F8
08
FF
03
00
05
05
00
05
FA
FC
F5
FF
01
02
02
FF
03
FE
F9
00
F5
04
F6
F7
FD
05
FC
03
FD
02
F7
01
03
F6
FA
FD
F6
F5
FE
FF
F6
F8
F8
FC
FF
FF
FA
F8
F6
F6
02
01
FD
00
01
04
FC
FF
F7
02
F7
01
04
FF
F6
FD
F9
F9
FC
FB
02
F5
03
F8
F7
04
03
06
02
FC
02
02
02
05
FD
FC
FB
FD
FA
F8
F9
F9
05
FC
F8
06
06
F7
FC
01
07
03
FF
FB
F9
FE
FC
F9
06
FB
FD
05
FE
01
F7
FD
FF
F7
FD
FF
03
06
FA
01
FE
FC
FC
F5
04
FD
FE
FB
F8
04
F8
FA
FB
05
03
03
FD
FB
F5
FC
FC
F8
02
F5
FF
FB
F9
03
FC
F6
F6
FD
01
F5
FA
FF
01
FD
F8
FF
02
F5
04
08
05
F9
04
01
F9
FC
FA
FA
FE
FE
F8
F8
05
FF
FD
F8
FE
FB
F8
F9
FB
F7
04
01
02
F8
F9
00
F9
04
FA
00
FB
03
01
05
F9
F7
02
FD
FC
FE
FD
F6
F4
FD
00
02
F9
02
FF
F9
FE
05
FB
F8
05
F3
FB
FC
01
FA
FD
FF
01
F6
04
00
F7
FD
02
02
FD
01
F8
F7
04
00
FF
FE
07
05
02
FE
00
F7
F7
00
FB
04
F6
FE
FA
FC
05
06
F9
FC
FB
F8
F7
FB
F7
FA
FA
FF
FA
00
00
FA
FC
FE
FB
F8
03
02
02
F8
F8
F7
00
F5
02
FD
F8
05
FF
FF
02
F8
03
FF
00
FC
01
02
FF
FD
F8
00
01
F7
F7
01
FC
FF
F6
FC
FC
01
FA
F6
FE
FF
00
00
F4
01
02
FD
FF
F7
02
02
F3
FF
F4
01
F9
F6
FC
FE
F7
FF
FD
FF
01
FF
01
FA
FD
F9
00
FB
00
F6
FB
FC
FF
FA
F8
FF
04
F9
F5
F8
FB
F8
F9
F8
F6
FB
01
FF
01
FF
F7
F7
FB
01
FE
F8
FA
F4
F8
05
FF
F8
FB
FD
01
FC
FA
FA
03
FA
F4
F3
03
FA
FA
FB
04
01
FD
00
04
04
FD
02
01
03
FB
01
00
02
01
04
FD
F4
04
F7
FF
FE
FF
02
FD
03
FA
FA
03
04
FD
05
05
01
00
FA
F7
03
00
01
FA
03
03
FB
F5
F7
FB
03
F7
FD
FC
FC
01
02
00
F8
F6
F9
02
F9
03
F3
FC
00
FC
18
12
04
F9
10
03
F1
FF
03
02
00
FF
EF
FD
F8
F9
F4
FC
FC
F6
0F
0E
F9
05
F4
F8
FE
03
0A
FA
06
15
FD
F0
0B
0B
00
FF
03
02
04
04
F7
0B
F7
FB
F5
F4
22
16
FF
07
14
0A
FA
00
12
03
FA
0E
0E
F7
FA
05
0A
F9
05
F8
F0
F8
FA
F1
FA
FA
F8
FA
0A
FF
07
F2
0C
FF
FE
F4
16
04
FA
F6
04
F7
07
0A
FF
F8
FE
00
0A
1E
0F
FA
02
0F
F6
F4
F7
F9
FB
F5
1C
FF
F8
06
0D
F5
F2
04
09
FE
FF
03
0E
06
FE
F4
0E
00
0D
03
F0
F7
E3
00
FB
FA
EE
07
09
0B
00
F8
F6
0B
FF
FB
03
0B
07
0A
0A
0A
0C
0C
F6
FB
08
03
03
F6
F6
F9
11
FC
FA
00
0D
05
FC
FD
FF
08
FB
00
0F
06
08
10
03
F7
FD
11
02
F8
03
05
FE
06
F8
03
01
05
F8
F3
0C
00
FA
FB
01
F5
05
F6
F3
F8
FC
FB
0D
FE
F2
FE
FC
EF
08
DF
E7
F4
0C
DF
04
10
FB
09
FD
FD
EA
EC
FC
FE
FE
FD
16
05
FD
FB
FC
02
F7
F2
F6
FC
F8
FB
11
07
F4
FB
03
06
F2
F6
F0
04
EF
FD
03
FA
FB
FD
F3
EF
01
F5
00
F6
12
01
05
06
F9
04
03
04
01
02
0B
11
FF
03
00
FF
07
F7
03
08
04
06
FF
08
15
14
F9
FB
11
01
F4
F0
EE
F8
02
07
F0
EA
FF
0D
09
02
F4
ED
EE
F2
FA
06
11
0B
05
FF
08
12
01
08
FB
EF
17
06
FD
F4
08
06
09
07
03
16
0B
08
F2
0D
00
FF
FC
FB
03
F2
F0
F3
FD
F6
FE
F9
01
12
15
F9
F1
F5
0B
F9
FD
07
F4
0E
0E
15
08
FE
01
15
F9
F3
09
03
03
FF
08
02
0E
F7
F7
04
0C
07
01
09
F8
FF
07
F5
FF
00
04
FC
FD
FF
05
08
EE
FF
FB
FF
0C
08
07
E1
07
F8
ED
FB
05
0E
FD
0F
04
0D
03
14
04
F9
01
0B
FE
EF
FC
FA
FF
FF
F4
FC
08
09
05
03
F7
F1
FD
F0
EF
06
FC
07
01
01
0F
18
05
F4
FF
FE
03
FA
FD
F4
1C
01
00
E6
0C
06
05
08
02
04
10
06
01
07
02
EA
18
12
F7
E9
09
10
12
21
00
02
FD
1E
11
09
F8
F0
05
F8
04
F7
0E
FE
F6
FB
21
12
FC
11
07
FF
FB
00
0A
FD
FB
00
FF
06
13
07
05
12
10
05
03
0C
09
07
FC
E9
FB
09
F3
EF
F2
F7
06
FC
04
F3
FB
08
FE
FA
F5
F4
FD
FE
FE
0A
FA
05
EE
F8
FB
FE
12
03
F9
05
16
00
0B
0C
FF
00
03
0F
05
05
FF
0E
01
FC
0C
0C
F1
F8
F1
03
E9
ED
E5
F2
FA
07
FA
EF
FD
09
FE
FB
06
0C
E7
F9
FD
FE
02
FB
02
05
FC
F9
04
07
FF
06
F8
FD
0E
0E
FA
00
04
03
FA
FA
FB
02
F8
00
08
04
00
E6
E8
F6
F6
FB
01
F9
0E
03
13
FA
F6
01
F2
06
09
13
F6
02
17
0F
EF
03
15
FA
02
0A
FB
04
FB
03
14
0B
F0
F8
17
05
03
02
01
07
FF
1A
FA
04
FD
FE
ED
EA
F2
08
04
E7
F4
F7
F5
F2
F8
FB
FD
03
03
0A
09
06
0B
0E
FF
09
FF
04
07
09
FC
01
0B
07
04
FD
12
04
F9
07
10
04
04
01
07
06
01
1C
F7
01
03
01
F3
F6
EB
EB
F8
E0
F0
F5
FF
F5
05
FB
F7
08
02
01
0B
0B
E6
E2
FB
E7
F5
00
FF
FF
08
09
F6
08
03
FC
EC
F2
F2
FD
08
F5
F2
0C
FB
F6
06
0D
FE
12
06
04
04
F0
FC
00
F4
F7
F8
F8
09
0B
05
F0
F5
02
FE
F4
FC
04
FA
FE
F8
06
00
00
FB
F8
00
FF
03
02
F3
02
03
00
FD
FD
F9
FD
FF
F9
04
FC
FA
04
FA
03
F6
0C
02
00
FC
FA
F6
07
F6
F4
06
FA
F4
FC
FC
00
02
FE
01
F4
FD
F9
FE
03
FF
FC
FA
F3
F9
F5
FD
00
FB
FB
00
F8
03
05
00
00
03
F8
F6
FC
00
FF
F6
00
F5
FA
F6
FE
02
F4
03
F6
FD
04
FC
FE
05
04
F5
FE
03
FA
FA
FF
F6
F9
F9
FE
02
FF
02
FC
09
FF
04
F7
03
F5
05
F5
FF
FF
01
01
FF
00
FC
FE
01
FA
FA
0A
0A
00
FC
04
00
FD
F4
FA
FB
07
FD
FE
FC
F7
01
F5
F7
00
FA
00
01
F8
04
FA
F8
FB
F5
F6
F7
FB
01
FA
FB
F9
FF
FA
FB
FF
FB
04
FE
FC
FE
F9
FA
02
01
07
FD
FF
01
08
F3
FE
00
FF
04
F9
FE
FC
FF
FF
FA
FE
FA
F4
F9
01
F6
F5
FA
FA
F7
04
FC
04
FE
FD
FF
F8
F9
FD
F7
00
F4
02
00
F8
05
03
00
F6
F8
F9
FA
01
00
01
F8
FF
06
F9
05
FF
FB
FC
01
FD
02
FF
F6
FD
F6
FF
03
FC
FF
FC
F4
04
05
FE
F5
05
FF
00
F7
05
FD
FD
11
03
02
08
F7
F7
00
00
F7
07
04
05
F7
F5
FA
0B
EF
FF
07
FB
F8
FB
0B
08
F5
03
08
0D
08
0A
01
F4
FC
FA
F9
F6
0B
0A
EE
F9
01
FD
FB
F9
F5
FE
05
06
00
FD
FA
09
F4
F7
00
09
FD
07
00
FF
F2
FE
F1
03
04
F9
10
FD
0A
09
F8
05
EA
F4
F8
04
08
FE
F8
00
02
00
F8
F9
FA
FD
00
0E
03
FB
05
01
F5
03
01
01
1B
0E
08
03
F5
FA
FD
09
F2
00
FA
03
FA
0C
0C
F5
F4
FD
04
00
0D
FE
01
F4
0A
0E
FC
FB
0F
15
14
0B
F8
01
00
FC
10
0C
02
EB
FE
F5
F5
F8
FE
05
04
09
F6
00
04
02
FC
FB
07
1B
FB
FA
08
FC
08
01
03
F2
03
FC
F9
F8
06
04
09
FC
04
FC
08
01
06
09
02
09
FC
02
06
FD
FE
09
FB
F6
0F
FF
F2
EF
F0
F7
F8
F8
FB
05
09
0C
0C
11
02
03
F4
F4
F9
00
03
09
FC
03
F6
F5
17
18
0C
03
06
FC
F7
F9
F5
06
F0
04
04
0F
F7
FA
06
FA
06
04
0A
FF
FE
FC
04
FF
FE
FC
FC
01
14
0E
08
FE
F3
FB
07
08
F3
04
F3
00
01
FE
08
04
06
F5
FD
03
01
F8
FC
03
FD
F6
01
07
02
19
17
08
0B
F6
F5
00
FA
F9
04
00
F9
08
06
09
F4
F7
FB
FA
E8
13
0A
FA
06
F9
01
E3
FE
FD
F5
F2
08
0A
0F
03
08
00
F3
FC
FA
F4
F6
08
F2
FA
06
05
09
05
09
F7
FD
13
02
0B
0E
0C
01
00
04
FD
FC
03
F2
18
15
0F
ED
0C
01
ED
01
F7
00
F7
01
FA
FD
FC
0A
07
01
0A
0F
00
FC
01
FF
04
F2
FF
01
FC
F0
03
01
FC
F7
ED
FE
FA
00
F8
F2
F4
08
02
F5
00
00
02
F9
FC
F5
ED
F3
FD
29
0A
EB
FF
0F
F9
E8
F1
05
F0
03
07
03
E8
06
07
02
E7
00
08
FD
FD
05
0C
0E
FD
F7
02
FD
04
F1
F7
09
FD
FA
00
07
06
F5
04
00
05
F9
F6
F2
DA
FF
03
0C
F1
02
FF
03
FC
0A
0A
FA
EB
04
13
0D
07
F8
00
11
10
FD
0C
02
04
F7
FD
FE
F0
0E
0A
00
F2
01
12
08
10
0F
16
FA
0F
F6
02
FE
0C
1C
0B
F2
E4
06
F8
0C
FE
FB
F6
06
02
0C
08
08
0C
06
01
0C
09
0B
FD
00
09
06
F8
FD
0B
08
FA
FB
0B
00
F3
FF
00
FA
0B
FE
00
0D
09
FA
03
0B
FB
08
F8
13
08
F1
E9
FD
FA
FF
F1
0A
05
09
01
08
FA
FC
00
F9
05
0C
14
0A
08
FD
06
FE
04
06
07
01
0D
07
11
FB
EE
E9
F7
02
08
08
05
0F
07
0B
FC
01
FB
02
F6
11
FA
05
0E
FF
F8
0A
02
FC
EE
01
FA
00
FE
F7
F3
0B
FE
FE
F3
FD
07
FE
0D
02
09
0D
FA
FD
03
07
F8
08
07
EE
FE
F2
06
13
04
08
08
03
FA
08
FE
02
E2
0A
ED
F3
19
0C
F2
0F
0B
01
05
03
0E
FF
01
02
06
00
F9
04
0D
08
0E
F4
0B
00
F8
F0
FB
11
0F
0B
0B
F9
FB
00
ED
04
04
0D
F4
0C
15
0E
02
FA
F7
00
09
0A
FD
00
12
00
02
04
13
05
F7
05
02
01
F4
02
FB
FB
03
11
14
FF
04
08
0B
09
06
FA
FE
0A
03
04
10
09
0D
FA
04
F9
FE
06
12
F5
03
0E
13
FD
01
FC
01
0E
F3
F5
F1
FF
01
F6
CE
FF
FD
07
F0
FF
FB
05
FA
FA
ED
E6
EC
02
EF
00
0C
F9
06
0B
0E
F5
F2
F6
FE
EC
F1
07
04
EA
FF
F7
01
0A
FE
F5
FB
0B
00
EC
F4
10
02
FE
FD
EB
F5
FF
0C
FB
FF
0F
0C
02
FC
04
07
14
0F
08
E5
0C
07
FE
FC
FC
FB
0E
02
09
04
FF
03
F4
0F
0D
03
08
05
03
EA
FA
F9
02
FE
F5
03
0B
F9
12
01
F9
F1
FA
F5
09
0E
F8
FD
12
0C
F0
FE
08
03
FF
FA
05
04
F8
FE
FC
09
EA
EF
FC
07
0A
FE
08
F6
FE
12
FB
F6
FC
04
FA
F9
FC
FA
08
06
F6
0C
05
F9
17
04
FB
FE
ED
EF
09
06
F6
F4
0B
0B
FF
06
05
F3
FE
E3
03
07
FD
F6
08
03
F1
FE
0C
FF
E1
F6
00
09
FA
FE
07
0A
11
18
16
00
F7
EB
F4
FB
F0
05
04
01
0B
FE
FA
DC
04
06
09
ED
03
03
FF
F6
03
00
FA
0B
FD
06
0C
05
F0
FC
08
0B
F7
FD
FF
02
F2
FB
00
04
F0
EF
0D
08
F6
07
0E
07
03
02
FD
F6
F1
04
06
07
0F
0B
01
02
06
00
0D
07
F2
00
FF
04
F7
FF
04
05
F5
01
FD
ED
06
18
0B
E1
FD
15
0B
07
00
08
08
F9
11
EE
F5
ED
01
FD
F9
01
FC
04
15
06
F9
F6
F9
05
06
08
08
07
E4
F7
03
0C
F7
F0
FE
0B
07
FF
FF
FA
FF
FD
01
FC
FF
0C
06
FF
08
08
FB
F2
06
F6
F6
EF
F8
02
00
06
F6
02
02
F7
01
0B
FB
0C
FC
01
FE
00
0E
F1
FB
F6
FB
FE
02
13
FB
03
0F
10
FE
09
F9
09
F2
03
F9
09
05
15
12
02
0C
0B
00
F2
00
06
EA
F4
03
05
F8
FD
ED
EA
F3
F7
F6
00
FE
FD
00
0B
FE
E5
06
F7
0A
03
05
F8
06
FB
FB
03
05
FA
02
01
FC
FB
ED
FA
00
01
F4
05
FF
FE
12
08
FC
F7
F4
F6
F8
F2
00
0D
F7
FD
0D
08
FC
04
0D
FA
FE
09
FF
0B
06
F3
FE
04
FB
FE
09
F2
F2
F4
FA
0E
07
05
17
18
13
02
F3
FD
04
0D
FE
10
0A
05
00
06
05
FC
0C
FC
03
03
07
FA
09
06
0F
0D
0F
0D
07
FB
F8
F9
FD
02
FF
FA
0A
01
FA
EE
13
F6
F9
F8
0A
F8
07
0A
F7
08
03
14
FF
08
08
F6
FA
EA
F9
FA
F8
FB
09
04
0F
0C
F9
F0
FB
F9
01
FD
FA
F7
ED
F9
EE
FB
01
04
FD
09
08
04
02
16
F7
00
06
05
07
03
09
0A
09
10
05
00
08
F7
01
01
00
FD
FD
00
F6
01
04
FA
FA
F3
F9
FB
F3
F3
F9
05
F8
00
FC
FA
04
04
02
FE
F9
FD
FC
F8
F9
06
06
02
06
FB
FE
05
FA
FF
FE
FB
04
FE
FB
04
F9
F8
04
F6
04
FD
00
F9
04
FB
FF
F9
F7
FC
01
04
01
FB
FE
04
FF
00
06
00
04
F7
FD
FE
00
FB
05
FA
F9
00
FB
05
FC
06
F8
FC
FF
F8
06
02
F8
F7
FB
06
FE
F8
02
00
02
06
02
02
FB
02
FB
FC
02
FF
00
00
FE
FD
FD
FF
F7
01
FC
FD
F8
FA
FB
FF
01
05
03
F8
03
04
02
03
FC
FC
F9
FE
FB
01
FF
00
F5
04
02
F6
00
F8
06
FC
FF
01
03
F7
FB
FA
FE
FC
FC
06
FC
FC
FC
01
FA
06
00
FD
FD
FC
FB
05
FB
03
01
04
FF
00
05
FB
FB
FD
F7
F7
03
F6
05
05
05
06
02
FD
01
FC
F9
05
F8
02
F6
F6
01
FE
00
00
06
02
FA
01
FA
FA
05
FE
01
F8
06
01
02
FE
F8
02
F7
F6
F9
FD
02
03
F8
FD
FF
FD
F6
FD
F6
F9
01
FC
FC
F8
02
04
FC
FE
05
00
FD
FD
FF
07
F7
04
03
F8
F9
FA
FA
F8
02
03
00
F7
FF
FF
FD
FF
FE
FA
FF
F9
03
F8
FC
F8
08
03
04
FC
FC
FD
F8
F8
01
06
F9
F7
FA
F9
F7
F9
FF
02
FB
FE
05
F7
07
FE
FE
FD
FF
F9
FF
F3
02
02
F8
FF
FF
05
FC
00
F9
00
F7
FE
03
FE
F9
02
FA
06
FF
00
02
01
F8
FC
FB
05
02
FC
02
03
F9
02
01
FC
FE
FD
F6
05
05
FF
01
F6
F6
FC
F8
01
FB
F7
F8
00
FC
FA
FE
04
F7
F4
FB
FE
F8
F4
FB
FA
FC
FD
F8
F6
05
EF
01
FF
02
02
FF
F7
FA
03
FD
03
FC
03
04
FC
00
FC
03
00
FF
00
03
04
01
FE
F8
04
FC
FE
F5
FE
03
F9
FF
FA
FE
FA
01
01
00
05
F7
FD
01
F7
FD
06
FC
F8
FE
FC
04
03
FA
04
FF
02
FD
F8
FD
FD
FD
03
06
FB
FE
FE
04
00
FF
F8
FF
FE
05
F8
F7
F7
FB
02
F9
05
FB
FF
FC
02
FD
01
06
00
06
FB
05
02
02
FE
FD
04
FE
00
FF
FC
FC
F8
02
06
02
FE
00
FB
FE
FA
FA
FC
FC
FE
FF
00
00
03
00
00
07
FA
FF
01
F9
F9
05
F7
FB
00
07
05
00
F8
F9
03
02
FD
F8
FD
FF
F9
FC
03
02
F9
FA
F9
03
FD
01
00
FA
05
02
FE
06
FD
02
03
F9
FB
0C
04
FA
04
FF
F5
FE
07
F8
F6
09
04
0E
05
05
F9
19
0C
04
EC
10
FD
F6
03
04
F9
03
05
F4
FE
0C
00
F8
05
08
1B
01
0D
F8
EA
0F
05
F8
04
02
02
FD
FC
16
06
0B
04
F7
F0
FE
15
EA
FA
03
09
02
FC
05
EC
02
FA
08
FF
01
0E
08
FF
04
F7
03
01
FA
01
07
0B
FB
07
05
FB
04
FB
F8
06
08
FB
0D
0C
FC
FC
FF
03
0A
0A
03
06
F8
F7
01
0D
ED
EB
03
04
02
12
FA
F8
ED
EE
00
FC
F1
08
F6
FB
FF
0E
06
FB
05
F8
F9
0A
FC
FD
08
09
08
0F
11
FF
12
F8
F5
F9
F7
F7
04
0C
14
05
09
EB
FA
F8
F2
08
01
FA
03
14
06
05
FB
FE
02
00
01
03
FB
02
07
F6
F7
FF
06
FE
02
07
FF
08
F3
FC
FB
00
FA
03
08
05
FC
19
F9
F8
03
05
FB
07
02
FE
FC
05
02
10
00
02
04
FA
F7
0D
FD
09
08
03
F6
0E
0C
FC
00
13
00
07
0B
FA
F4
06
08
F4
FF
13
F9
F2
06
FC
F4
F6
F5
05
F5
F8
04
06
05
05
07
0F
06
02
08
07
F6
F1
05
03
F9
FE
01
0F
FF
FE
FB
F3
F8
FF
05
FA
FA
FE
FC
FE
FA
06
FD
F7
F9
FC
FA
04
05
03
F6
FD
FE
00
FB
F9
FC
05
02
03
FA
01
00
FF
F8
FC
F7
FE
FF
02
FE
FC
FA
F8
FF
FE
01
F7
04
00
F7
FF
FF
FD
F9
FE
FF
F7
F5
01
02
01
FB
FB
FB
F9
FC
01
00
F9
00
FD
03
FA
F8
F6
03
FA
FD
F7
FC
FA
FB
05
FA
FE
F7
03
00
FA
FB
FC
04
04
FA
FA
04
FA
02
FB
F8
01
F9
F7
FE
F8
F8
FB
04
F6
F5
04
FE
FF
FD
F8
03
FF
01
FC
FB
FA
00
F9
FC
FA
FB
00
F7
04
03
FF
05
06
01
FE
06
04
F8
FA
05
05
FD
04
FC
FD
04
05
06
06
FF
00
04
FF
FE
01
03
F8
00
04
00
FB
01
05
01
FA
FA
F7
FD
F7
00
FD
F9
FC
02
F8
04
01
FC
05
F7
03
FA
F9
F7
FD
FD
02
FC
03
02
01
FC
03
02
02
00
FC
F8
FA
FC
F8
03
04
06
F9
06
FC
FE
00
00
F7
FE
FE
02
00
F8
00
F9
02
04
F9
FA
FF
F7
FE
05
06
05
FB
FC
FB
FB
FF
F9
F7
06
F8
F9
F9
FE
F9
02
03
FD
02
06
F7
04
FB
FF
00
FF
FA
06
03
FD
F8
04
FE
FC
F6
FC
05
FF
02
07
FA
02
0D
13
01
0A
FB
09
05
F9
05
0C
03
00
FD
0E
01
05
E6
06
07
FA
F4
01
11
0F
FF
FC
0E
F3
E1
FC
06
0F
F5
ED
01
0F
09
03
FD
04
06
F4
FF
06
03
0A
FF
FB
04
0A
F9
00
02
F0
F5
FC
F1
F6
FC
F5
FE
F8
FA
F4
0A
0A
08
10
04
FE
07
FA
FD
F9
02
FD
FD
05
0A
0F
F8
FE
FC
00
F9
F6
FD
00
F9
03
EF
F5
01
05
FC
F7
FD
12
0E
0C
0A
EE
E7
01
0A
F1
FE
08
FF
E2
05
05
00
F0
FA
00
02
F1
F1
00
0F
E6
02
04
F4
F4
FE
04
F0
05
05
0A
07
0D
FC
FA
0B
11
08
05
F8
0B
04
FF
F9
00
FD
04
00
F7
0D
0D
FA
FF
04
00
FF
02
03
FF
06
01
F0
00
02
F7
09
0B
08
F1
08
01
EE
F5
05
F7
E6
F1
01
13
0B
04
FF
F8
FF
02
0A
0B
EC
F7
04
FC
FA
FC
FD
08
03
F3
F8
F8
FE
06
0D
08
FF
03
0B
00
04
06
03
0B
F4
F2
F3
0B
10
01
02
04
01
01
0D
07
F3
16
05
02
F5
FC
F6
00
FE
EF
F4
FE
06
12
02
F8
13
1A
0A
09
05
F9
02
FC
FA
06
FB
F8
FB
F6
F8
09
10
FA
FE
09
FF
F7
FD
06
04
00
03
0B
08
00
F6
04
08
FB
03
FE
F9
FA
0B
0B
FD
F6
08
F9
F7
0B
F9
F6
FE
0A
04
FD
FF
FD
0E
06
0D
01
F2
EB
07
F8
F4
F5
06
00
02
09
0C
02
FF
F5
F5
F9
02
04
00
12
08
FC
FE
F0
F7
0A
0A
FD
0A
F6
FF
FE
FC
F3
FD
01
F7
F3
13
F9
FF
F9
06
F7
00
02
FB
15
03
05
01
F9
EE
FB
0B
F9
02
FE
07
F5
09
10
FE
EC
0B
07
FB
EC
F8
08
FE
09
0E
FC
FC
0C
0E
0E
0A
F3
F5
0F
06
01
0B
04
FB
FB
FF
F9
01
0C
05
07
12
0A
FE
02
03
F8
F5
05
01
F3
F7
01
04
09
FB
F8
F3
01
04
F0
FB
FB
06
05
FF
FD
FE
05
05
0A
02
FD
05
02
00
03
02
FC
FC
F9
FB
02
0A
F1
F6
F3
FA
FA
05
11
0C
03
FE
09
13
00
FA
00
04
F5
0F
FB
07
06
01
F9
07
08
1E
FD
0D
F9
FF
04
00
FC
08
F9
01
15
11
F0
0D
07
FB
F8
FA
02
F7
FA
FB
FC
F1
05
FD
F8
F3
17
04
0D
F9
F7
04
11
12
F7
09
FB
03
07
00
00
04
FD
01
09
F8
06
FF
06
10
07
F7
FA
F5
F9
18
0F
07
03
FE
FA
11
05
FF
FD
07
F5
02
FC
F5
F3
FF
FC
12
FB
07
F6
0B
00
03
EE
F0
04
F7
F4
19
01
04
04
02
01
FC
FF
01
FD
04
FB
FA
00
06
FE
F6
05
FC
07
FA
F7
0F
0B
05
0F
0A
FE
05
F1
F0
12
18
EF
0D
0E
18
FC
02
02
15
07
08
03
09
FA
FD
04
00
06
05
03
FE
0C
FD
03
08
FB
F7
F6
F8
0D
12
08
00
F7
F6
02
01
FF
01
FF
FA
F2
F6
08
03
10
FA
F7
01
F9
F4
F1
F4
F8
F8
11
0D
01
FE
05
EF
E9
E5
F2
09
FE
07
0E
09
05
F6
00
F8
F8
FF
02
FD
04
04
F8
FC
F6
01
02
05
F7
FF
FB
F6
00
08
0F
08
FF
04
05
0C
08
09
FA
F2
03
09
FC
FE
FB
12
E7
F2
0A
00
E7
02
05
09
0E
04
02
0F
00
14
03
05
00
FC
F7
F7
06
0F
12
0A
0C
F4
FB
07
FD
06
05
0A
01
14
FA
E9
F7
F0
FE
00
02
FB
F5
FB
04
FD
EF
FB
00
06
FB
04
F9
FD
05
02
04
10
FA
FD
00
F7
03
F8
11
17
0D
F9
09
05
FA
FB
07
F8
01
00
04
06
FB
FB
07
FE
04
FF
FA
FC
05
F7
FC
07
05
FA
02
FD
FF
F9
FE
03
FE
03
02
F8
F6
01
FB
FB
F6
05
FD
07
FE
FB
05
F9
FA
04
FB
FA
FE
FF
FD
FE
FC
FC
FA
FE
03
02
03
F8
FD
FA
FA
FB
03
FB
FD
FE
00
00
F6
F9
FD
FE
04
FC
FB
FA
FD
FA
01
FA
FD
F9
FA
00
FE
00
F8
02
F8
03
FC
04
F9
05
04
02
FA
04
F9
FD
FB
F6
FE
FD
F9
04
01
FF
FA
FF
00
FB
F8
FC
05
FD
FD
01
04
FF
F8
01
05
07
F8
FE
F8
05
F9
06
F8
FE
04
F9
FD
01
FF
F9
F8
F9
F8
05
FC
F8
03
03
02
FF
04
F9
07
F9
07
F8
FA
05
02
FC
F9
04
06
FB
FA
FA
05
04
07
FC
F8
F9
FB
F9
03
05
FB
04
06
FC
FF
01
F9
FD
FD
03
F8
F8
00
FD
FA
FB
03
FD
05
01
FB
03
FA
FC
FB
06
F8
FA
00
07
05
FE
FD
00
06
FC
02
05
FD
FF
05
07
FD
FE
FC
07
FB
05
05
FE
04
FA
07
01
06
FC
01
FD
FC
FF
FA
01
07
03
02
FD
05
FF
03
F8
FA
01
00
F8
04
04
F8
FC
02
03
01
FF
FA
FB
F6
F3
F4
0A
0B
FC
00
FE
06
00
03
FE
03
07
09
F9
02
F3
01
EF
F6
F9
0C
EC
16
0E
02
FE
EE
FB
0A
0F
FC
03
04
0A
F5
F4
02
0E
F0
02
0E
FD
FE
FA
02
FA
FA
FB
06
FF
0D
FC
FA
ED
01
0B
FC
F8
06
09
03
03
F7
03
04
07
E3
F9
FE
08
0E
06
06
F5
FD
09
08
04
F0
F8
06
07
F4
FF
10
F6
03
00
F5
FE
11
F8
F0
00
F5
F6
00
FD
07
06
04
F3
0F
01
FD
F1
F4
FD
00
04
12
04
FE
01
F8
02
02
0B
E2
E6
03
05
FF
FA
FE
FE
0D
05
0C
FE
DF
EC
F5
08
E7
07
05
0C
F8
FF
04
F5
F7
F7
F8
02
0E
09
FA
E3
0D
03
FD
FA
FB
FD
01
09
04
FD
01
0C
FD
FF
FB
03
0B
04
01
0A
F5
F3
0A
F5
FB
06
0D
02
0C
05
FA
F3
F4
F1
10
0E
0B
0E
05
FE
01
FA
13
F8
FB
F4
FA
F6
FB
09
06
FC
03
02
0B
F2
02
1F
04
E9
FB
F5
00
04
F5
02
01
F8
07
07
F4
F6
05
00
F5
FD
EE
FA
0C
FE
05
02
FE
05
01
07
F8
0D
E6
EF
F9
03
FE
F5
EE
FC
15
01
02
F9
EE
F4
FC
FB
FD
03
FD
0E
01
05
04
F8
03
0B
F4
F0
E6
F7
FD
16
E4
F8
03
06
ED
FC
FE
F3
0A
03
FE
FD
01
FA
03
F5
10
F9
FB
F6
04
F9
0D
05
03
FA
02
FC
EF
F9
05
0A
ED
F8
FF
FD
0B
FD
F7
F6
FF
06
FF
E4
F0
06
F9
F6
00
0C
F8
01
EB
03
05
04
FA
12
FE
F0
F1
FB
F9
13
EC
E7
0D
0C
FC
F7
09
FE
0D
FC
FC
F9
EE
F7
FF
09
02
05
F7
0A
FB
FE
02
FC
06
05
FF
F8
FC
0E
03
F8
FB
11
FA
00
05
07
F0
F8
FE
F4
05
11
01
00
0D
0B
03
09
F6
ED
FC
02
FE
05
F3
02
13
0F
F3
00
03
1E
F7
FE
03
11
FE
05
F5
EF
11
04
01
FA
F6
FA
F5
FF
0B
01
FF
FF
03
FE
07
FF
07
02
06
FC
08
07
02
00
0D
0A
FF
F5
0C
02
FA
F4
F8
FF
0B
12
F3
F3
05
04
FB
EF
F4
E7
01
F7
00
F8
00
03
02
FC
EA
02
04
15
FD
0A
F1
1C
FC
EB
F7
FF
F5
01
FE
F8
F1
1C
13
13
FC
05
08
FD
FA
04
ED
EF
06
06
07
FE
F6
05
02
F9
F9
0F
FF
12
F7
0B
09
0E
0D
0F
FA
ED
02
08
FC
09
FE
01
FB
FD
08
FA
0A
F6
06
F6
F0
FA
E1
E6
F3
06
01
05
0F
FE
0E
00
02
02
07
03
00
F7
1C
06
01
FC
09
EA
01
FA
FD
F6
0B
06
F9
08
07
00
F8
EF
FE
00
0A
0C
07
04
01
06
0D
08
10
FE
EB
FA
FF
02
F1
FF
00
ED
06
08
F9
F9
FA
F4
05
05
F1
E4
F9
F6
FA
FE
0B
F3
09
EA
0C
01
F4
FB
F9
06
07
02
F1
01
01
04
FB
0B
08
F8
0C
05
FE
0A
0A
FB
E6
F1
12
10
F4
FF
0B
11
F7
0C
0B
03
F9
04
FE
00
F6
FE
08
0D
0C
03
14
14
EC
F1
12
05
F6
0B
16
05
0F
FE
F2
F7
FD
0C
02
05
0F
1B
04
FC
0A
FF
F7
00
00
F6
0B
09
F5
FA
04
09
F9
FA
F8
02
F3
01
FB
F6
F4
06
0E
02
07
0F
09
02
0D
10
0A
F2
09
15
F8
F5
0A
04
F9
F5
EE
F9
FE
FB
FA
FF
03
F8
FF
FB
0C
0E
00
EF
EF
F4
F4
18
FF
E3
FB
FC
00
F9
0E
F2
02
12
FC
F5
F8
FB
FA
1B
12
17
05
10
0E
02
01
0C
07
FD
FD
F2
FB
0E
00
FA
FC
06
F4
01
04
06
FF
F4
08
FA
FC
04
FC
FE
FF
FC
0B
02
01
0A
FB
00
0A
04
00
05
09
04
EF
F1
07
1B
FE
F7
11
05
FC
F8
04
F4
09
06
01
00
09
FC
E4
D7
FD
FA
ED
F2
09
0A
04
0C
03
02
01
FC
04
08
0C
18
04
03
04
08
FB
07
02
FF
02
0A
0B
FF
F4
03
FC
F4
F1
FE
05
01
F9
FE
F5
08
F6
07
06
05
FD
EE
F5
05
FE
03
03
01
01
F5
FB
07
00
05
FB
02
F4
04
0C
04
00
01
F8
09
F4
F2
05
0A
04
0D
02
08
14
1B
0F
F5
FF
0F
07
EA
E8
F6
01
EA
EE
F6
F6
F8
0C
0D
0D
0B
E7
F8
F1
CD
F2
08
FC
F0
FE
F1
04
FE
08
10
0B
19
FD
F9
FF
16
05
05
08
F3
0C
0F
0F
FD
05
00
FF
E9
0C
0F
F7
F9
FF
02
02
05
F9
FF
00
01
0B
0E
FF
F4
02
0A
ED
CF
FD
FC
FC
F3
FB
02
07
F6
F2
FE
FB
FB
F4
03
01
05
FA
FB
F7
F6
0A
10
07
FF
FD
04
13
1E
F7
12
02
25
F9
04
F4
F7
08
0F
F7
F9
FA
22
23
2B
02
0E
09
01
07
09
EE
EA
08
07
0A
F6
F7
0A
05
F3
F5
04
05
14
FD
02
15
09
0B
04
04
0B
F2
FD
04
FB
08
F6
F4
FB
FE
ED
FD
EC
09
FE
E4
E1
0B
06
F0
FF
F6
FB
04
06
02
FB
FC
04
03
07
08
09
FD
FC
FC
04
03
F6
01
09
FA
F6
F8
F3
F2
FF
E2
09
F9
F5
0B
10
01
FE
E7
ED
F0
EC
F6
F7
03
FF
E5
EF
F5
02
04
EC
0A
10
02
08
FC
07
09
FE
0D
03
FA
FB
FD
10
05
0A
F4
FC
05
0D
FE
F0
F7
FE
F6
FA
F4
FD
F4
FE
FB
02
FC
F6
FA
F6
0A
04
F6
E9
0A
FD
EB
DF
FF
01
F5
00
ED
04
FD
04
05
13
FC
02
06
07
03
FE
F3
08
00
04
0A
27
FF
0B
19
01
0C
04
FE
FC
F9
F1
F3
FB
F9
F0
FB
F5
FB
FC
F3
E7
F9
00
03
04
0E
07
ED
F6
FC
FE
F6
FF
F5
F9
E8
00
FE
F3
13
FB
F3
EF
01
07
F6
FD
FF
0E
05
04
0A
F4
01
08
07
00
E8
FE
EB
F6
F7
06
F7
00
0A
01
00
F6
0B
10
05
13
08
F6
EE
01
04
FB
05
08
F3
FD
F2
0E
0C
05
05
FF
F3
FB
FC
F5
07
F9
06
F3
02
FA
F5
FD
ED
0B
0C
0A
15
08
FD
FD
07
02
FB
F9
00
F8
F9
EB
EF
EA
01
E8
D6
ED
00
08
04
FC
0B
06
08
F3
FE
FB
FF
06
05
08
04
16
EF
F2
FB
0E
F6
FB
08
0A
00
03
02
03
03
FE
07
07
04
06
0D
02
02
01
F6
06
FB
0F
FB
F6
FE
FC
03
05
FB
F5
F2
F8
FC
FB
F1
FF
00
FD
FF
06
FD
09
09
18
F6
06
FD
02
0E
FC
0F
FD
0A
01
04
04
03
F7
F7
11
00
EA
F7
F7
FE
FF
F3
FB
FB
FE
ED
06
FD
0B
0A
FC
FD
02
F7
FF
06
13
0A
FE
03
FB
FC
07
FE
F5
00
05
F7
08
14
03
FB
04
04
F7
FF
00
0A
04
08
04
01
F6
01
15
10
0E
00
06
04
FC
01
0D
02
FC
01
FF
F3
E3
FB
01
FA
FE
07
04
FE
02
FD
FC
02
0E
04
03
04
01
01
04
FB
FF
F5
07
F9
F4
09
FC
07
05
FC
FD
06
0A
08
01
0C
02
FD
02
0F
04
F9
00
08
05
08
04
EE
EC
ED
FC
F6
F6
0A
05
FF
13
06
03
FF
02
FE
07
F6
08
FA
01
00
F1
F5
EE
0E
09
FE
02
FB
02
06
FD
ED
04
F9
FB
06
09
F8
F7
02
05
05
FF
08
07
03
04
00
F5
F7
FC
FA
F4
06
03
00
05
FB
02
06
02
EF
FB
01
12
02
FE
FF
00
FF
FC
FF
F9
14
06
16
03
0C
01
FE
FD
27
14
0E
07
FE
03
09
11
10
FF
04
F7
0E
0F
0B
01
F0
0D
0C
18
09
FA
F4
00
EB
02
FE
FC
FC
FF
FD
FD
09
0E
07
04
FD
0D
10
08
0F
06
16
0A
FF
F9
F6
F9
DF
EC
03
FE
07
FA
02
FF
EA
FA
10
09
0A
07
06
03
0A
0D
00
03
F2
F4
FE
11
FF
06
00
F9
0B
0F
00
07
F8
F6
F8
E8
08
02
00
00
14
0D
12
0C
FB
07
F9
FB
DF
E4
FF
F9
D9
FB
02
F7
F9
04
FF
FC
F2
EE
01
06
DD
F8
FE
0C
04
13
06
FF
EE
F0
10
FB
FF
05
08
02
12
06
07
09
09
14
09
10
04
0B
F8
09
FE
03
FD
FE
04
0A
FB
05
00
FE
FF
F3
07
03
FD
FD
05
FE
09
FC
E1
F6
FB
0A
F2
F8
00
01
FC
FD
FD
FB
F0
F4
03
FE
F6
F2
FA
FF
0E
0B
09
F3
FF
F3
FD
10
0A
06
0F
FE
DD
F8
09
FF
10
14
06
08
FF
04
0C
20
09
07
0C
0D
F8
F3
04
03
E6
09
04
0F
0C
04
F9
F0
18
0D
04
04
FB
01
F0
EF
14
13
09
F4
16
1B
19
04
0A
03
FF
F7
F3
02
FF
09
FC
05
FF
01
07
FE
F9
09
0D
FF
04
03
00
FE
00
F7
02
02
FF
0A
F7
F9
FD
0A
F2
04
03
0C
FA
FE
0C
03
F3
05
01
10
00
04
FE
F7
09
FA
FC
0B
FA
00
F9
FF
FC
F8
FE
FF
00
01
F5
06
07
0B
02
04
0A
FF
06
F9
FB
06
05
00
10
FF
01
F6
EA
FF
10
0D
FD
0E
0F
07
06
10
FA
09
07
0B
05
07
FD
FC
06
F7
FF
F9
FE
FF
0B
0D
01
F9
00
00
FA
FC
02
11
0B
0C
04
FA
03
FE
06
FA
04
02
02
F8
FF
03
1A
09
FC
FD
04
F4
F3
E3
F4
F8
FE
0C
F4
12
00
0B
E8
E9
F7
FC
F7
FA
FD
F1
03
0E
07
F2
F5
04
01
FF
FB
01
FF
FB
F2
F9
06
0C
FA
F6
FF
08
0A
04
0B
05
09
09
00
05
08
04
FB
FD
06
FC
FE
06
0B
0A
FC
03
08
00
DF
F0
FF
0B
02
F5
FE
10
07
10
F2
01
06
05
F9
FD
F8
02
0C
03
F0
EF
FE
F3
F8
D7
04
02
06
00
F7
ED
F9
FA
01
FB
F2
DA
FC
03
0B
EE
F2
04
F4
0E
01
10
04
FB
EF
F8
0B
0F
02
00
FF
FD
07
08
06
FF
FD
FA
18
0F
FB
02
F5
FC
FE
04
05
03
03
FC
FA
F9
03
02
04
FE
EE
F4
00
04
E7
F1
01
0B
F7
06
FD
0C
F8
F5
F6
06
07
06
F8
F4
0C
F8
EE
0B
10
0C
F6
01
0E
FE
FF
F9
F8
FA
FC
00
01
09
01
02
F8
03
05
00
06
10
FE
0A
FE
04
01
09
06
F9
08
06
0F
FD
0A
F3
F0
F4
FF
0C
08
F6
03
0C
09
F6
FA
03
FD
06
FC
0A
FA
08
08
F2
FE
05
F9
06
0B
17
FF
00
FD
04
FD
00
F5
FC
FC
F5
0E
04
0A
FF
03
02
0D
04
0B
01
02
06
1C
10
FA
F7
11
03
0B
09
04
05
F6
F9
0F
11
F2
00
03
F5
F9
F7
EC
00
06
00
F3
FE
F4
FF
02
FB
04
09
01
FD
04
01
FE
02
FF
01
03
FA
04
FB
0A
06
09
FB
07
04
07
FD
12
06
0A
08
0F
00
FB
02
0F
FF
03
F8
11
0D
E9
F3
FE
F6
FB
09
F3
03
07
04
09
00
0A
07
03
F4
FE
08
0D
03
F5
03
F1
E4
F6
F2
F8
E7
09
EF
FD
FC
FC
FF
EF
01
03
09
EA
F8
09
04
07
01
FD
05
EC
F6
03
FB
F7
F9
FE
FC
08
09
F9
FC
F0
03
09
F8
EC
04
F5
00
06
03
02
03
05
EB
DB
FD
ED
EC
CD
E1
00
F6
0B
FB
EE
F5
06
03
00
FB
01
F0
00
F7
03
0C
EA
EC
F0
F5
F1
09
05
03
FB
05
19
0D
0E
00
04
0F
11
07
E8
F7
05
F9
FF
0C
01
D7
B9
EB
ED
E8
D0
E0
00
08
12
00
F5
03
0A
FD
0B
0F
F4
E8
15
04
F0
F0
0E
00
F9
00
F0
0E
FD
12
F0
FD
14
00
06
EF
E7
FA
F6
FE
EF
F6
0B
FF
F9
00
12
EE
E3
E6
F7
EE
F2
F0
04
FA
14
07
E8
FD
17
11
FC
13
10
0A
FB
15
00
0C
11
1A
08
F7
FE
10
17
12
00
0A
04
0E
FB
0C
0E
03
1F
14
08
F9
FA
02
0E
FB
FC
E2
E1
FC
FE
E4
ED
01
ED
F2
F9
F3
01
FF
08
06
00
F6
F6
0B
01
09
FB
F6
05
11
0B
FA
F2
05
0E
14
F8
11
0F
07
0C
FD
0A
0D
03
0F
05
01
03
02
08
06
01
FE
EE
DD
11
FE
F2
D1
FF
FA
F9
02
FA
08
0E
FE
04
17
0D
F4
10
03
EB
F9
04
02
02
1E
F6
02
24
16
00
FF
F5
F8
01
F6
FD
09
FC
0B
FE
F2
00
FA
04
02
05
F2
E5
FB
F4
EF
DB
D8
08
FD
02
F0
F5
07
0A
01
F5
07
0B
0B
FD
02
0B
F2
F1
FC
F6
04
0E
D5
D1
FF
F7
00
F9
F9
FF
02
04
05
07
05
06
0B
14
16
02
06
10
02
F5
F4
01
0A
FD
06
06
0A
FB
00
F4
F0
F3
EF
FC
F9
09
10
02
07
07
F9
F1
FF
04
0E
F0
F7
FF
12
01
FC
10
10
00
F8
FD
FE
F7
EF
E4
FB
1B
F0
D3
F3
08
F6
EB
EB
FA
07
00
08
FC
02
01
F8
EE
FE
FF
00
07
01
0F
03
F4
FB
0F
08
EE
EB
E4
07
0B
05
0A
03
FF
F5
09
03
0C
0F
FE
0A
09
04
0C
04
0C
21
1E
23
13
1A
FC
F4
09
02
F4
F9
1B
0B
F8
F5
FA
DF
F5
FD
F4
FA
0A
05
0D
03
03
13
FC
05
FE
F1
18
06
09
F4
0B
FF
00
FF
06
0C
08
00
FE
FD
11
07
FF
06
05
15
04
12
0B
09
01
04
06
0B
09
03
05
FD
F1
E8
E9
00
FC
FD
02
01
0B
FD
06
07
06
FB
E9
EE
E2
EA
F7
0F
F3
F3
08
03
0A
02
05
E1
02
04
E6
F6
F2
E7
FF
07
0C
00
FB
F6
04
06
07
FC
04
01
0F
0A
F7
02
00
F4
F4
0B
0F
16
F6
03
06
FB
EB
EA
F5
FF
F6
F1
00
00
F6
F8
F8
FE
07
F6
FF
F2
00
06
F5
F1
FC
F8
01
F8
F4
00
F4
F6
03
FD
FF
F7
04
F8
00
07
F9
08
F9
FA
F5
FD
FA
FC
FA
00
F8
01
FD
FA
F8
0B
F8
FB
01
F6
04
FC
01
FB
05
FE
02
F8
FF
FC
FC
F5
FD
F8
F5
F9
F8
FE
FF
FE
F4
06
FF
FD
F1
FB
F3
F2
01
08
03
F1
FE
00
FE
F4
F7
F5
F3
03
FE
FB
FE
FD
FD
F1
FC
F4
F4
F9
03
F9
02
06
F9
F8
F9
F0
F2
EF
09
07
00
FE
0E
07
EF
F1
FB
EF
F7
FC
F2
FC
FC
F6
05
FD
F4
F6
0B
F3
FC
03
00
FE
F8
05
04
F8
FE
ED
00
02
03
F3
FA
03
F3
EF
F2
FF
F4
03
FC
FC
FD
F6
F4
FB
FD
F2
F8
05
FE
00
FA
00
F8
F1
01
01
02
03
06
FF
FD
06
FC
F4
F3
03
F5
FF
FD
FC
FE
FF
FD
FA
04
05
F7
EE
00
F7
FB
FB
F0
FF
04
FF
FA
04
08
EE
03
F4
F7
F2
F4
00
02
06
F7
04
0A
07
01
0F
04
F4
FE
04
07
FB
06
FD
F3
F9
04
F4
FA
F5
06
03
09
F3
FC
F7
FC
F7
F6
FB
F6
08
09
01
F7
FD
F3
F6
F2
F9
00
FE
02
00
FE
FB
F8
FA
02
04
09
0F
0D
0A
FD
F6
06
0E
02
07
02
F5
FA
0A
08
FA
F2
F4
F6
FF
F0
EA
01
FE
05
F9
06
10
01
EE
08
06
0C
FB
05
02
08
06
01
10
08
08
FC
FC
F4
05
F9
FC
F5
F3
FC
F5
F2
F5
F7
00
00
F8
09
06
09
FD
16
F7
05
FD
00
16
1A
0B
03
01
0A
07
01
06
00
12
0C
0C
10
18
FD
06
01
F3
FE
F0
02
02
FC
F6
FD
F8
FE
F4
F2
00
15
22
FB
FC
F0
F3
09
0C
EC
03
03
00
F3
10
0B
05
09
F9
FF
05
E9
EC
EF
F6
F9
02
02
00
0F
08
05
03
F6
FB
13
06
06
FC
FF
12
07
F3
FE
0A
0B
FD
F1
EC
01
F7
F1
FB
FF
00
04
03
FF
08
09
FE
09
10
0A
0F
05
05
08
0D
FE
0A
FC
FD
F8
0D
FB
F3
02
0E
01
F4
05
FF
FE
07
FD
FE
02
02
09
07
05
01
06
F9
F5
FC
FA
02
12
06
FC
03
06
05
04
05
F4
0C
0E
F2
FC
05
11
F4
F8
E2
EE
F9
00
0F
F8
07
08
07
F5
EF
E9
F1
FB
F9
F9
F6
F8
F6
FB
03
F3
FD
F9
FC
03
01
02
0B
0E
F9
0D
0B
00
00
EC
FF
01
01
03
0C
08
F0
FA
09
19
0E
03
EB
00
FB
F7
0E
FF
F1
FC
FA
0E
0B
02
F0
0A
FB
03
0D
F1
01
05
FF
05
0C
F3
E6
F5
09
1A
11
F8
F9
0A
01
09
02
FD
F9
FE
F7
01
06
FA
ED
FD
ED
12
11
07
F7
F3
05
03
05
FD
08
FB
0E
07
F0
00
FE
F8
FE
03
F9
FC
F1
F7
10
01
FE
F7
16
F5
0A
12
02
07
FB
01
F5
03
02
FD
03
FC
FA
F8
07
FB
F3
01
FE
09
13
09
ED
F8
E2
02
17
F2
EF
05
0C
F9
04
07
FF
05
EB
F6
12
F2
E4
0C
14
F3
FF
F8
FA
18
FA
F3
F8
FE
F2
0E
15
FA
FA
F7
0D
FC
F9
0B
01
F7
F3
08
E4
0B
08
08
04
07
03
01
FC
FB
FF
03
08
02
F9
10
0D
FE
F6
F9
04
F8
04
0C
10
F9
01
FF
F6
F7
10
F3
EF
F4
04
FF
03
FA
00
02
07
F8
16
0B
0E
FF
01
F6
FF
08
0C
10
05
00
09
12
17
02
0A
FC
20
12
F8
EC
EE
0D
11
0C
D6
F2
ED
15
2D
FE
F7
00
08
F2
08
FC
EE
FE
FC
13
04
FD
FD
F7
F2
00
F6
FF
F8
01
FD
FB
09
0C
F9
F3
EC
FD
FF
00
06
F8
FE
05
06
FF
F9
FC
00
FF
00
F9
FE
06
04
06
04
F9
FF
F9
FB
FA
F9
FD
FD
04
05
FB
FD
FC
05
03
FE
01
FC
01
FF
FB
05
FD
F9
FA
07
FE
05
FD
F8
00
FD
FA
05
03
06
FE
FC
FE
FF
FD
F9
04
F7
02
06
03
FC
06
FE
FE
FE
01
FD
FE
07
02
F7
05
00
FC
02
FA
FD
FF
06
F8
06
03
FC
02
FD
FB
06
FB
F7
00
01
05
F9
02
01
06
FF
00
F9
FF
FD
FC
06
04
07
04
F9
07
FA
07
FE
06
02
FD
F7
FF
01
01
F8
F8
01
FD
03
FE
FE
FA
FF
F7
F9
FE
02
04
01
FC
FF
00
00
F9
FA
04
FB
FB
01
F7
F8
05
FF
00
FA
F9
FE
F7
02
FE
05
FE
05
FA
F6
FC
FE
02
05
FA
FF
02
F8
F6
00
FC
FD
02
FB
FB
FE
FC
F9
F7
F7
FC
F8
FA
FA
F8
03
FA
F6
04
05
FA
04
02
05
01
01
00
FE
00
05
FE
08
FE
06
FF
06
F9
FD
05
FD
03
FA
05
05
F7
F6
FD
F8
F6
FD
00
F9
07
FF
01
FA
FC
FD
F7
FD
F9
FD
F6
FB
FD
03
F7
FB
FD
F6
03
FE
06
FC
FE
05
F6
FB
03
FB
F0
F7
FC
FA
00
06
07
F9
08
0C
FC
FC
07
08
07
1D
EC
CE
D5
F8
F0
01
03
01
FC
06
FA
03
FB
04
0A
FC
0A
11
00
04
04
FC
FE
EE
07
FF
05
F4
08
04
08
0A
EC
E7
E5
F4
F7
00
04
FF
06
0F
08
FA
0D
09
12
15
FD
FF
0B
00
0C
FC
08
F6
06
F9
F5
FE
08
01
F9
0D
04
ED
F1
03
0A
F8
ED
F2
08
04
FC
01
04
05
07
01
F0
03
02
F2
FA
07
05
FE
0F
07
01
03
02
F7
07
13
02
F9
10
08
F2
FF
FF
0B
0F
0F
0F
06
19
15
F8
F7
04
08
12
19
03
05
06
00
07
06
F8
E1
13
05
FC
ED
DA
EB
ED
F8
F9
09
06
F8
FF
0B
0E
0A
FA
F8
FE
FB
05
06
FF
00
07
FB
0A
06
0C
03
08
FD
06
01
08
FC
03
0E
17
16
09
01
0A
FF
0F
F8
06
F2
0E
06
FA
F6
E3
F8
FA
FD
07
04
0A
05
0B
F5
00
F3
FD
F7
F9
02
03
01
03
FA
07
E3
F3
DA
FF
F4
F9
E8
03
FF
F3
09
ED
EA
F5
06
FB
F4
07
11
06
06
07
0F
08
07
08
F5
FC
FD
FF
FA
00
04
FB
FE
0C
FF
F7
FA
00
03
06
16
07
09
06
08
06
06
FF
02
07
01
FD
EF
FB
F0
EB
FC
F3
05
FB
F2
EB
00
00
F8
FE
03
03
0A
FE
00
0B
FF
F2
E8
EB
EF
F2
FF
04
00
00
00
0A
0D
09
05
02
1A
08
08
0F
11
00
FF
09
FC
05
FC
F2
FB
F0
F2
F7
F4
0F
06
04
01
F9
01
F5
F4
F2
0A
F7
FA
07
08
ED
F2
07
FF
07
01
FD
FC
07
04
F4
F4
09
F3
08
F9
F6
05
FF
0A
0B
05
F9
F6
F9
F7
FA
FF
02
ED
FA
E9
EE
EA
01
00
F2
FB
14
FF
04
01
05
05
FC
04
F7
01
FD
FF
FE
F2
EA
F6
FE
EF
FC
00
F1
0A
06
0A
18
13
03
03
FC
F9
03
03
F6
08
07
FF
07
06
FF
FE
FF
01
FA
F9
FB
F9
FF
05
0A
00
02
0E
00
02
01
FD
FB
04
F1
F7
FF
F9
FA
EB
0D
FA
F5
F7
F9
FE
04
00
F6
01
0B
19
02
0F
0C
03
F9
FA
FE
FF
ED
F6
FF
F6
04
03
F4
F0
02
01
04
08
01
0B
FA
08
F1
F6
F7
00
EE
06
02
07
08
02
FC
ED
FC
01
FF
03
F8
00
04
FD
FA
0F
00
F7
FE
0C
0E
0D
03
FD
F5
03
03
F0
F0
F1
FB
EF
F3
F5
FC
F4
F5
FF
01
08
0A
FC
0B
06
12
10
04
02
FE
F7
0F
0C
04
00
07
04
01
0E
13
08
FA
0A
01
FE
07
FF
06
FE
FA
01
0C
02
F4
F1
07
FF
F9
FF
04
06
02
1D
07
FF
00
F9
06
0B
07
13
0A
0A
10
06
F9
F8
F5
E9
FF
F4
FC
FA
FB
0C
07
04
01
FD
04
05
F7
06
06
00
0D
FE
02
01
0A
05
07
14
0B
0C
19
1D
04
FF
04
01
04
02
FF
07
FD
0D
18
01
0D
03
09
F7
11
16
F9
F5
FE
E5
F4
0A
FA
00
03
04
EF
00
07
01
F6
F1
F8
06
EC
E5
E9
F3
FD
09
0B
04
01
06
F1
F3
F8
05
03
1B
07
02
08
03
05
09
03
09
14
11
02
F7
05
FB
EE
F7
F3
00
05
0B
05
08
01
FA
01
02
07
FD
FD
06
FC
03
FB
F6
FE
F7
FA
FF
01
F5
FD
FC
EB
E6
0C
F5
F0
0E
10
06
06
0D
06
0F
11
17
FD
FD
09
0C
FD
F0
07
0B
06
00
FB
10
05
F2
F2
F4
08
FA
05
F2
F8
ED
0A
00
05
F8
EE
FC
F1
F4
FC
19
F9
FE
02
02
F1
F2
FD
FE
FE
FC
F3
08
F5
00
FC
F5
08
FF
07
15
FF
01
FD
02
03
0D
FB
06
FA
FE
09
01
07
0B
F9
06
F7
F4
EB
F5
0C
09
0F
0C
F6
F2
F8
EB
F0
02
FF
FA
0E
10
0D
FF
F5
F4
03
09
07
FB
16
11
F4
FD
07
04
FE
0A
0E
FD
02
08
04
0B
F9
06
FD
FF
10
0C
09
0E
F5
F3
F2
06
FE
04
03
FE
16
FF
F1
FC
F8
F9
F8
FF
04
07
EE
D2
0B
03
0B
02
F4
FA
05
FA
F4
F8
F6
F2
08
09
0A
12
07
02
F7
F4
02
FC
04
07
FD
0B
FF
03
F0
E5
DF
E7
F2
FE
FA
0C
E4
FA
0B
0D
FB
07
FE
06
FD
03
0B
05
EC
F4
04
02
FF
0A
04
09
05
FD
08
0C
0C
0B
0B
F5
08
09
0D
FA
FA
FE
F4
F4
10
06
02
0F
08
FD
FE
0C
F6
07
01
02
F7
FD
FD
08
05
F9
FC
04
FF
04
F8
FA
F5
03
FF
F1
FE
00
00
FD
17
F6
0E
15
0B
01
12
03
F6
08
11
0C
FF
08
F7
E3
04
0B
03
FE
FF
08
02
EE
F7
09
08
FD
0F
12
0E
EC
0F
FC
00
0E
E7
F5
02
02
0B
03
F8
06
FF
F3
FC
F6
F5
05
07
03
17
0C
07
05
01
0A
F9
06
04
01
04
0C
EE
F6
FE
FA
FD
F8
E8
F4
04
FB
00
01
02
FE
F7
FE
03
FC
F7
00
01
FD
00
FC
02
FF
03
03
FF
01
FF
08
FD
03
08
FC
FD
05
FA
04
04
FF
FD
FF
05
FE
F8
FD
F7
F3
FF
FC
FE
04
01
04
FB
00
FF
FA
00
F8
FE
FE
FC
01
F8
FE
F8
FA
F4
FA
FE
03
06
FB
05
F9
F8
FB
06
05
FE
F7
05
FF
04
01
FC
03
01
0A
FD
03
FD
FF
FE
FB
08
02
00
F8
FB
04
05
FD
03
FB
03
FF
03
F7
01
FD
FF
00
FF
02
00
F7
FA
04
FA
05
FF
04
F9
FA
02
FE
F4
F5
FD
FE
03
FC
06
00
F9
0A
FB
F8
03
02
FE
FE
FD
FB
06
00
FB
09
03
FD
FE
FD
03
FB
FB
FC
FA
FD
03
FA
F8
FF
01
06
F6
F5
FB
FB
00
FA
FB
FA
FD
F9
F5
04
F9
00
F7
02
F7
03
FD
01
F8
01
F8
F8
FC
FF
F7
07
FA
01
F9
05
04
F8
FA
FA
F6
06
03
FF
04
06
05
FE
FC
F5
01
06
F8
07
FF
FA
04
06
F6
05
01
05
02
FA
F4
F7
FF
FF
04
02
F9
FB
FD
FE
02
06
08
03
00
02
07
FB
F6
06
00
FD
02
F8
02
04
FC
FB
03
00
FA
FC
F7
06
FB
FD
02
FC
00
F7
07
FD
04
00
F5
01
0E
0A
04
0F
F4
F8
02
E9
DE
FA
FE
FF
08
07
FB
0A
08
02
FD
08
0A
10
04
0B
07
FE
0A
EF
FC
FF
FB
FD
F8
03
04
00
02
F6
02
FD
F8
E7
F9
FE
09
09
F5
0A
14
05
00
01
00
F7
F8
FB
FB
0A
05
0D
07
02
F8
0E
08
02
F1
FC
03
07
0E
E4
DD
E4
FC
F2
FA
E8
FA
05
07
1A
FC
09
03
07
FA
F9
03
07
04
0A
0B
10
FE
03
FB
08
F5
04
F9
FA
0C
FB
FF
F7
0D
02
F6
F4
1B
F8
02
F8
F3
01
04
0A
0C
0F
0E
17
1A
06
F8
ED
0B
04
FA
FB
00
00
08
05
FD
EE
E6
F2
09
01
0F
FF
02
FF
02
10
0C
06
0A
08
11
06
FE
F4
00
FA
F7
F7
05
06
00
00
F6
FD
FF
FB
03
F6
04
15
F6
FB
0B
0A
02
0C
07
0C
FC
01
F8
00
EF
E6
F3
EF
11
00
11
0F
FD
F8
0C
07
01
00
02
FB
F2
F8
FC
01
05
FB
1B
14
FB
05
0C
0A
0B
07
FC
F7
06
F7
F4
09
0F
F6
0D
FB
0B
03
F6
06
FD
0E
0F
0F
05
02
02
F0
04
06
06
0A
FA
03
0E
06
FC
FC
F4
F2
FC
FD
00
01
02
05
00
F7
FF
06
F6
F5
FD
03
03
FC
05
F0
EC
F7
EE
F7
F6
FF
F7
06
F8
08
F8
FA
F9
F7
0D
0C
FF
FF
09
FF
02
03
03
00
F8
FC
FD
FC
F9
02
ED
F1
F3
F6
F9
09
05
0A
F6
FD
07
FE
02
0C
FE
02
04
FD
02
03
02
00
FB
03
0E
FD
02
F4
F4
FD
F8
F9
0C
01
03
05
04
05
F9
FB
08
0B
03
0A
01
04
FD
F6
EB
00
FA
FC
05
0D
04
F2
07
05
07
03
F7
F9
08
F7
F8
02
FD
0A
F5
00
00
08
1A
0B
0C
0A
24
15
08
FC
0B
03
05
0E
06
0D
EF
02
13
09
02
F5
0E
0A
FE
FE
F8
F3
FA
F6
F8
FF
F4
FB
00
F9
0B
02
FD
02
07
FF
0E
01
06
0A
04
04
FF
09
07
07
FF
FF
FC
FE
05
04
04
09
09
12
0F
07
FB
13
0A
03
08
F7
0B
0A
F6
FE
FE
F1
F7
01
FE
F8
F9
01
0C
FF
01
09
11
FE
02
01
05
FD
ED
00
F7
E4
E8
D7
05
EC
F8
E4
00
02
FD
04
E8
EE
F0
04
EF
F7
00
07
05
05
01
0B
F9
F7
07
FF
F9
FB
FE
08
FE
02
F0
F4
03
06
03
FC
F7
03
01
02
FD
F9
06
02
F7
0E
08
FD
FD
09
F6
F1
FE
F8
01
F8
FB
03
05
F5
F1
F3
FB
F2
FE
FC
FF
F6
F7
00
07
0B
04
FD
F7
F6
FD
08
01
05
08
07
07
EF
01
0D
0C
F6
F9
FE
FA
FA
04
0C
00
EB
07
10
05
EC
FD
05
F9
F4
00
FE
FF
00
E6
FF
0D
05
FF
FD
04
E9
03
FC
00
EC
04
09
15
0A
08
07
0A
0B
03
FF
01
F4
FC
04
FE
EA
FC
FD
00
01
F9
0D
02
F0
07
F8
F2
E7
FD
FF
00
EA
F7
00
00
07
05
F4
FE
0B
E4
FD
03
0E
04
02
04
0C
FD
FC
F8
EF
EF
F9
05
FF
FA
0B
03
04
08
FA
06
F3
00
04
04
F1
EF
00
F1
E8
F7
09
0A
FB
01
FD
FE
F9
F4
FB
03
06
FD
05
08
12
09
FB
0D
08
10
FE
F7
05
05
09
02
F2
0F
FF
FC
FF
01
0A
FA
F1
0A
06
06
FF
07
0D
0A
FE
E6
ED
06
0A
F5
02
03
F8
FF
F2
00
00
06
FA
01
ED
EC
FD
FD
E1
F6
F3
F7
E9
F3
F1
FA
DF
F3
01
FD
ED
FD
FC
FB
F4
FD
FF
00
06
F9
05
0B
07
F3
FC
0F
0F
F3
F7
00
F4
0A
F3
EB
EC
01
FD
EE
F5
05
07
00
0A
FC
F7
FF
0A
F1
F2
00
00
F3
F6
02
ED
F7
04
0E
0D
F7
0A
FA
F6
FD
FF
09
04
04
FE
00
08
FD
F7
03
F8
05
F6
0A
0A
F9
ED
00
14
00
FF
F5
FB
FA
FF
08
12
FE
FA
FE
03
00
FA
00
03
FD
08
FF
F3
04
07
F8
FC
FD
11
F0
F8
EE
02
F2
FC
08
0C
08
F9
FC
00
0F
0E
F9
FC
12
0A
F7
F8
07
FE
FE
FB
F8
00
0C
03
06
FE
02
F4
EE
06
F9
F5
FF
F4
F7
03
FD
03
ED
01
F8
F8
05
0B
FF
FC
0D
FD
F5
FA
F4
02
01
07
FB
FD
00
01
0E
01
0D
FA
FD
0C
0F
0E
F4
06
0B
FC
05
0C
03
F9
06
FA
F8
07
09
FE
F8
01
0C
00
04
FE
05
00
FC
07
08
F9
F8
05
FB
FF
F1
00
FD
09
FF
F1
F6
01
F8
F0
02
06
FD
00
05
04
04
15
F5
FE
0C
04
02
03
03
F5
09
ED
00
EC
0B
FB
03
ED
01
04
FF
FB
FB
0B
06
0B
FB
13
FE
05
0C
0E
F8
16
F2
05
05
11
0C
13
0A
FE
0C
02
F9
F7
05
FA
FD
04
0B
08
FD
04
11
03
0C
03
09
FD
FC
0E
F2
F5
F2
EF
0B
09
0E
F8
06
03
02
0B
0C
00
00
06
FA
F7
02
0E
FB
02
02
FD
E7
FF
00
04
FD
F6
04
09
07
06
FE
08
09
F4
F6
E8
06
EA
E3
E9
0E
E4
F4
E8
0D
F7
05
14
0E
00
03
00
0D
0E
15
13
0C
08
05
12
FF
FA
F9
07
FF
04
FE
F8
FD
05
FF
05
F4
05
F3
F1
FD
FC
FD
04
FB
02
FF
0C
F6
FC
F6
F8
0A
F7
02
0E
07
FF
FE
15
0D
F9
F6
01
04
14
21
11
0C
F4
F1
F7
F4
EC
F5
14
F3
FB
00
FD
0B
0F
EB
EB
0A
0F
F5
FC
07
10
F8
F3
03
F3
F5
07
0C
FF
E1
0E
01
08
ED
F0
11
FF
F8
03
06
F7
02
14
F6
02
13
1F
0B
03
10
29
07
F9
F3
01
09
F4
F1
F4
04
FF
F2
F1
0F
05
FF
FA
FE
0E
09
FA
F5
04
07
06
12
03
F7
0B
0A
FA
F7
F0
09
06
FD
F7
01
03
03
0A
F3
FB
07
12
01
06
05
01
FE
FC
EB
F3
F5
F8
02
04
F7
08
0B
32
F1
1A
19
38
06
ED
DD
F5
07
FC
00
0D
F6
21
0F
1C
FE
09
FC
14
0F
03
EB
EC
FB
F3
F1
F3
18
10
0C
FF
03
0D
04
F2
F2
FE
0B
0E
F2
03
FB
FF
07
09
06
09
F9
01
FB
08
0E
FC
FB
FB
04
05
F8
F0
06
0A
05
01
FB
06
06
05
01
FE
FA
F9
0E
05
FF
FC
00
00
02
09
07
06
02
08
02
F1
0A
1D
FD
FC
03
0A
00
FF
07
09
F3
FE
11
02
0D
04
FE
F5
F9
FD
F5
EF
03
00
07
FE
F6
FE
F5
FA
F3
FD
FC
FC
0E
11
04
F4
06
05
07
0A
FA
FF
09
0D
F4
02
16
FE
05
06
F1
01
0A
07
09
FE
F1
F5
F1
02
02
08
04
EE
02
09
F7
ED
F7
FC
FD
03
14
08
FC
FF
FF
FC
F6
03
F2
F8
F8
0E
F6
E6
F2
F9
0A
09
FA
FD
F6
00
01
0B
FC
0C
01
12
FC
02
02
FD
03
0E
0C
0E
12
0B
F6
F1
07
F8
F2
FC
01
FD
FB
08
05
06
05
0D
01
03
02
FF
09
00
01
F6
F5
00
00
EF
05
0E
FF
FA
05
FB
F4
FE
F9
F2
FD
18
0C
FF
0E
FE
FC
01
FF
F3
E9
F8
06
F8
01
02
0C
03
02
FD
04
0A
06
12
F5
EE
04
F3
05
05
00
05
14
09
00
11
FE
FF
04
FF
F6
01
F4
F9
04
02
04
03
02
0A
02
0A
00
0A
ED
F0
FF
00
06
03
F9
FA
14
03
09
F7
01
01
01
F7
FF
FD
FE
F6
12
FD
FE
02
FF
00
FA
01
07
F8
EF
F5
17
07
FE
F2
11
07
0A
07
09
FE
FB
F9
0D
0E
08
0B
0B
0B
04
F7
FE
FD
FB
F9
FD
0F
01
0E
08
FD
FF
FD
04
01
00
0F
0A
07
02
02
06
FB
F5
09
02
F5
FE
07
FD
03
05
FB
FB
F0
01
00
12
08
03
0B
08
FE
EF
F3
09
02
F2
EA
0A
01
00
F2
FD
02
01
F6
03
FA
FF
03
02
FE
04
03
0A
04
06
08
16
F8
F6
FC
F3
FB
F6
10
F1
01
FD
13
F3
0B
F9
02
FE
05
04
F8
FB
FF
03
FD
FD
07
F4
00
F6
FA
F9
F8
13
18
08
04
07
FD
01
05
0E
05
11
21
12
03
FE
03
F9
00
FC
03
0B
05
09
07
06
06
00
05
01
01
F6
02
06
F8
01
03
FB
05
FC
09
0A
0E
FB
FF
F9
F4
05
F7
FD
F7
0F
12
05
06
FE
FB
07
0E
02
F7
07
FF
FF
FC
FF
07
FE
09
F8
F0
FE
0F
08
F2
06
F2
06
FE
01
FE
0A
01
0B
0A
F4
00
F1
07
F2
05
FA
13
11
0C
1B
FB
0F
F9
FD
FA
F9
FE
03
FE
00
FE
F9
F5
0F
FA
00
FE
13
FB
FE
05
F9
F9
FA
F2
03
FE
00
FE
0B
00
07
02
0E
05
FF
00
F7
F3
FE
1A
04
0B
00
FE
F9
F3
F4
F2
F8
FC
02
06
FE
FB
FC
DB
00
02
FA
EE
F9
FE
08
02
04
F2
FC
01
FA
06
02
FE
FC
FD
F9
FE
FB
FC
FB
FC
09
0B
FF
FE
F0
F8
FD
06
F3
04
0B
09
16
10
0D
FB
F9
0B
FE
F8
FD
EA
F9
08
F9
01
FA
FB
F3
F5
02
0C
FA
F3
FF
FF
F1
F3
0B
03
06
04
F9
0D
06
FE
FF
FF
08
0B
03
F9
09
0D
11
02
01
05
02
F1
F4
F6
FF
F8
F4
FB
02
FF
12
0B
0A
09
02
F9
FD
EB
06
FC
01
FD
F1
02
01
F5
FC
06
F2
19
F9
FF
00
01
FB
F8
FE
FB
0B
0A
0F
03
00
07
FB
F8
FB
FC
F6
FE
0B
F7
07
07
04
03
0C
02
FF
10
07
FA
F9
FE
01
F5
F5
01
03
F6
04
0B
03
F6
F7
FF
FF
F3
FE
00
0D
07
0E
07
00
00
FA
0B
02
F8
FB
FF
FD
0B
FE
FC
03
2B
FF
01
03
F7
05
FF
F3
E1
FB
08
12
23
06
01
0B
FF
ED
FA
F3
E9
05
06
08
04
F5
F7
01
F0
03
0E
0D
07
05
04
04
0E
05
04
F5
03
01
0A
0C
02
FE
ED
F9
FD
EC
FC
07
06
FD
FC
FF
0F
10
13
14
FA
15
05
FB
03
08
F6
F0
F7
F4
F8
04
02
07
02
08
02
F7
FE
07
FC
0C
FB
F1
E5
FA
F9
F3
EA
0D
16
10
FE
06
FA
E7
F1
EA
F3
01
18
F8
FA
FD
16
03
09
FB
FD
07
01
00
EC
15
09
0A
06
FB
FC
FE
0A
FB
03
09
FF
FD
04
FF
F9
03
03
F1
F2
ED
05
09
0A
08
FD
07
FD
0C
F4
F3
01
FD
F6
05
17
FB
05
FD
15
0A
07
04
00
F4
0A
06
04
EF
F7
05
03
15
07
02
F9
06
12
09
F8
FC
05
0A
03
FE
0B
0D
02
03
FA
F2
E9
14
14
0C
FB
12
EB
EF
05
FF
EF
EE
03
FD
F9
06
07
FE
09
FC
FF
F8
F9
FE
FF
F0
05
01
FE
FE
FD
07
F6
09
FD
FF
FE
FF
07
08
F8
FC
F6
0E
F9
06
05
01
DA
09
03
05
0C
09
05
EB
E5
17
05
FB
05
08
FF
09
FE
01
14
08
03
FF
FC
F4
F1
14
0A
0B
11
0C
02
FC
18
14
08
03
F4
06
04
FD
01
09
F2
F9
FC
F9
F5
FC
02
0A
09
FE
F9
09
EE
F2
F9
EC
FA
08
01
F5
00
05
0C
FF
01
FB
F8
FF
FC
05
FB
FC
F9
02
FF
02
00
04
FD
FE
F9
06
F9
F8
07
03
03
02
FA
FF
F9
F9
F8
FF
04
F9
FC
02
FB
FD
FC
FB
FE
FF
01
F6
04
FD
FE
FE
00
FE
F8
FF
F8
FA
FB
FC
04
00
00
FA
FA
F5
F8
FC
03
03
FB
FD
FD
04
F7
04
04
04
05
FC
FF
07
F8
FF
07
02
FF
F9
0A
FF
02
02
01
FF
00
00
07
FB
05
03
FC
FD
F8
F5
FD
F7
F8
F9
00
F9
FF
03
FE
FD
00
FF
06
00
FC
00
FD
FC
FB
04
05
FE
FC
F9
F7
FC
04
F9
04
F9
00
FF
FF
06
FF
FD
04
FA
05
F9
FC
FA
02
02
FD
FB
FC
F8
01
05
FD
05
04
01
FC
F5
00
01
F7
02
FD
F9
F7
F9
F5
00
05
F5
FC
00
04
F6
FB
04
FE
FA
F6
F6
05
04
F8
03
FD
04
06
FE
FB
FF
02
FD
06
01
FC
F8
F6
FA
FC
03
F8
F8
01
FF
03
04
01
FB
FC
03
02
05
FA
F9
02
FD
01
02
03
F8
F9
02
FF
F8
03
03
00
FC
FD
01
FA
F8
FB
FA
FE
07
FD
FF
02
F9
04
F8
FF
FC
FF
FE
04
F9
01
FC
00
F8
FD
FF
00
02
FB
00
FC
04
06
0C
01
0B
FD
FB
0E
F8
FF
03
FC
FA
09
FF
F3
FB
10
02
FA
EB
03
FF
0B
EF
01
FF
05
F4
F1
FF
07
04
F3
ED
FA
01
02
FF
10
0D
FD
0B
14
0C
00
FA
04
F7
09
0D
05
FC
03
FC
06
F1
F6
F7
FA
FA
FD
FC
04
02
FC
FF
05
0D
FE
EF
09
F6
0A
05
F4
F9
03
00
F1
02
FE
0C
0E
06
04
0D
0B
FE
FB
00
0A
FF
F7
EF
0A
F9
03
0E
05
FD
EF
EE
FA
F5
FE
07
FA
FB
FE
09
F8
FB
08
F1
F2
12
0D
EF
FC
1C
06
EF
F9
0E
01
FF
0D
00
F6
E9
FC
12
03
FC
FB
0D
09
05
12
F8
FB
FC
04
FF
FA
FF
0B
F0
FD
03
0C
FD
F2
FF
16
03
00
01
06
FF
03
FB
01
10
FC
FE
09
05
FF
F8
F7
0C
03
02
FD
0B
FE
F5
FF
02
F8
F8
02
01
FB
09
0E
04
F8
00
06
07
F7
FD
FE
05
FB
EF
F1
03
F4
F8
05
0A
0C
05
FF
05
02
04
07
FA
11
F5
01
F9
FE
02
03
02
00
0E
17
12
11
06
FA
01
04
FA
F6
FA
FD
F8
11
F4
FE
10
0D
0E
0F
08
09
03
03
02
07
F3
05
0C
F1
FC
05
00
EB
02
FD
FE
FA
0D
17
FD
01
FD
F8
F8
FD
F8
07
05
FD
EB
F4
FE
05
F8
EF
02
09
09
02
0C
04
FB
F6
F6
FD
09
09
F5
F9
02
FA
F7
00
09
01
03
FF
F9
08
07
FC
F4
EC
FC
05
18
10
FF
06
05
0C
02
F9
04
FC
02
01
03
00
05
FD
F7
FC
0C
07
FB
FD
04
FC
FF
F8
F5
02
03
F6
E6
06
03
F9
F8
07
04
FE
FF
FD
07
FC
FA
F7
ED
09
06
04
01
0A
06
FE
08
F3
01
05
F3
F9
02
09
18
12
0C
FF
05
F8
04
FF
F8
FA
06
01
EE
FD
05
00
1C
13
08
18
FE
00
EC
EE
FF
F9
F9
F1
14
00
F8
F0
F0
F9
FC
28
04
08
0D
16
06
02
0B
FD
FA
0C
0D
F5
08
04
F7
F9
0B
02
FA
FF
FF
FB
0B
04
FD
F9
02
06
09
04
00
0D
0E
02
FF
F9
03
FD
F5
F3
FB
02
0B
FC
FE
00
FC
03
F5
03
01
13
F7
FF
FD
FD
04
03
FD
0A
03
F8
03
21
F6
03
1D
17
FA
F2
05
ED
05
12
03
F1
FE
0F
0C
16
F9
03
06
03
05
08
02
02
FC
EF
0A
F3
F0
F9
0B
F3
04
0B
02
02
05
F4
03
02
F6
FF
03
03
FD
05
05
03
F8
FE
FA
08
07
0A
F6
F4
FC
0D
09
ED
E3
FE
02
11
D7
04
07
0A
E8
01
F3
FC
FE
03
01
04
01
FE
F4
F6
07
F9
FE
1B
03
F3
07
10
0B
FD
F8
0C
E6
EF
FA
0C
EB
F5
F3
F6
12
12
06
F5
FB
12
05
FD
00
0A
09
09
01
04
04
FC
E8
04
04
04
E9
05
04
F8
F9
F3
09
17
F3
EB
0A
1C
EA
FB
08
03
0A
05
FA
02
07
FB
02
FC
FE
08
FF
FC
FB
03
04
EA
00
07
0A
00
13
07
06
FB
10
04
FC
FB
13
03
02
F5
FA
00
FD
04
09
03
0E
08
16
0A
00
EC
FA
F9
FD
13
DF
FD
01
09
E7
F5
02
0E
DB
01
F6
FB
FE
06
09
FF
0E
07
06
04
FA
FB
F1
05
05
03
FF
FD
0D
00
FB
FC
02
09
FC
FC
05
09
04
05
0C
FF
F2
0B
04
F9
FA
FB
02
F3
F0
0F
FA
F9
0A
01
FB
F7
08
09
FD
00
12
05
FB
FA
06
00
03
0B
12
0C
09
04
F1
08
F2
FE
FC
0B
F5
01
07
FC
03
10
0E
06
02
03
08
F6
F9
07
F6
FD
FB
08
0A
05
FE
F4
FF
01
FB
09
F7
0D
FE
FC
FF
FB
0A
15
01
FA
02
FE
F5
F9
02
FB
FC
F8
F9
FC
FE
FC
FB
FA
F4
FD
FE
03
FD
04
01
FE
FF
FE
F8
02
00
F9
F4
FC
01
F4
FB
01
F5
03
01
05
FF
04
04
04
FD
07
FD
FF
FB
FC
01
F8
FE
FE
FB
F8
F9
FB
FE
FF
F9
F8
FE
02
FA
FE
FC
F6
01
FB
01
F9
F4
FD
FF
00
FB
FA
02
00
01
03
F7
03
01
FA
FF
00
F9
F9
FE
FA
FB
F6
FD
04
F6
F7
F8
FA
FB
00
FD
F7
FD
F4
F8
FD
00
F7
03
04
03
F5
FF
04
FA
F7
01
FB
FE
03
05
F9
FE
F5
03
FB
FD
FD
07
01
FC
FE
F8
0A
FB
F8
FE
01
F9
FE
05
06
FA
FB
00
FB
F5
FE
FB
02
FE
03
F9
FE
F9
02
FB
FA
FA
FA
02
FB
F8
FF
FD
FE
FF
00
05
03
FB
F8
FE
F7
FE
FF
FE
01
01
03
F7
F8
FD
08
02
F9
F4
FD
F5
F6
FA
F6
FD
F8
F4
02
FF
02
F9
F5
FB
F6
FE
F9
02
FF
03
F5
FD
FE
F6
03
FA
FC
04
FA
F7
03
01
FF
FC
F6
F9
01
F5
F8
00
F7
FC
FA
00
F7
F9
FA
FA
FC
03
03
00
F6
F7
F7
01
FC
FB
05
03
00
FE
04
F8
F9
FB
F7
FB
01
11
0A
02
03
00
F4
02
02
F8
FC
01
01
07
FE
FE
F8
0D
07
09
F3
FC
05
05
F8
FC
07
0E
FE
12
04
FB
FE
F9
0C
00
F8
07
08
04
03
F9
FB
FF
09
F8
0C
06
EC
FE
02
07
FD
02
FC
09
00
0B
0B
0E
02
02
FD
FB
E9
0B
FE
FB
07
F6
10
0C
0D
ED
02
FE
04
0B
06
F5
E6
00
03
FD
FE
F6
F3
03
FF
F6
EF
F9
00
06
F7
F2
FC
06
03
0A
FC
F0
FA
FB
FE
F6
F4
0B
06
F7
F0
F5
F2
04
04
00
F7
14
0D
02
F9
F8
F8
07
F8
DE
FA
03
0A
08
09
FE
11
13
17
11
F6
FA
EC
F7
05
F7
07
13
0C
0B
0D
FF
F4
FC
FC
04
01
06
04
03
FB
0C
0A
00
03
00
FF
FB
F5
FE
01
03
05
F1
F1
04
01
ED
FA
02
FF
F5
F4
08
04
F8
04
13
FD
F2
00
07
0D
EF
FF
15
02
FC
09
03
01
FC
03
06
08
F2
00
06
0A
0A
0D
02
00
03
FE
03
11
01
1E
19
1A
0A
02
EE
F5
01
11
0B
06
16
0A
05
08
08
FA
06
FE
FF
FB
0B
F7
FE
F0
07
12
0B
10
00
03
F2
F7
09
10
F5
F9
F5
08
06
FB
ED
F2
00
00
F9
FB
00
02
FC
FC
07
F9
01
03
FA
FC
04
07
F8
FB
00
00
FD
FE
FF
06
FD
05
FB
02
FC
06
FC
F7
02
FE
FA
07
F9
FA
FE
02
07
05
04
02
FB
03
FE
00
FD
02
05
07
06
F9
FF
04
F8
FA
FD
FA
FE
02
02
02
FE
F8
F7
FA
F8
FE
03
04
05
F9
FF
F8
FB
06
FB
F9
FB
F9
01
FF
F8
04
FF
FB
F5
00
02
01
01
FA
05
01
FC
04
03
FF
F8
06
F8
03
FF
06
FE
FF
FB
F8
FB
FE
07
02
03
06
FA
FD
FD
02
FD
FA
02
F8
FB
F7
04
03
FF
F7
00
02
FE
05
03
07
00
F9
FB
FA
02
01
05
06
F8
FE
FC
F9
06
FC
06
FF
F9
03
01
FA
00
01
FE
01
00
FB
04
00
FB
02
04
05
F8
FF
00
FF
FE
F7
03
F9
F7
00
F9
F8
FC
F9
F9
F7
00
FA
FE
FD
FB
FD
FF
F7
FA
04
F8
F8
02
02
FD
FC
06
FE
03
FE
FD
03
00
03
03
07
F6
01
04
F8
F9
07
FD
FB
05
03
03
03
00
03
06
05
FF
FA
00
F8
04
FF
00
F7
05
F8
F8
F9
04
03
00
05
06
00
00
03
03
F7
F9
00
05
01
06
FE
FB
06
01
FC
FB
FF
F2
FB
FD
01
01
0B
FC
05
05
F1
F9
FD
17
18
01
FB
02
07
F9
FC
05
07
03
FA
10
16
FE
FE
F7
FE
FD
07
01
FE
0A
08
F4
F0
01
04
00
08
0C
0A
0A
03
06
02
FA
00
01
FC
0C
05
F9
02
FF
FC
FE
01
08
0D
04
F8
02
FF
FA
06
F4
00
FA
09
0F
14
FF
E7
FE
FD
06
FE
F9
EC
06
F6
ED
F8
0E
00
01
FC
F4
0B
13
02
F9
FB
FB
F6
01
FC
0A
0A
0E
F7
FE
FB
F1
F0
F7
F1
F2
04
F5
03
02
03
EE
05
01
05
E8
FC
03
00
F3
FF
F9
FC
01
0F
0A
09
F2
F9
08
07
06
11
09
0C
07
11
07
FE
05
09
0B
02
0E
10
00
E9
0F
FE
FA
FF
FD
F9
04
FE
F7
05
02
06
02
02
00
02
03
06
FD
FF
F8
F2
F8
E8
01
08
FE
F7
04
F0
01
0E
FA
EE
12
07
0D
02
0D
FA
03
00
10
F2
00
FE
09
FF
FE
FD
01
F4
FE
08
11
FE
0A
09
FF
FF
FF
08
08
09
F9
FC
10
0B
0E
05
EF
FE
F1
FE
F8
01
00
FE
02
F7
22
06
F2
FA
0A
01
FD
FC
F1
F3
FE
06
09
01
F9
07
07
00
FC
F2
FD
04
FB
FF
0A
00
FF
0C
FD
02
00
03
0A
0C
04
F1
00
FB
FE
13
F8
F6
FC
06
F5
04
05
05
F7
0C
13
0F
FB
F2
FF
FC
FC
FA
F4
02
0E
FF
FC
F0
01
F5
F2
00
09
0F
01
09
03
FC
02
00
F0
F2
06
10
04
03
FD
F2
F1
02
F2
F8
0C
09
FF
07
0E
0C
0F
01
ED
F9
0A
0D
ED
F3
FE
0C
FD
F9
04
06
FD
FE
04
12
FF
FD
0A
02
FF
07
04
0C
10
0D
00
FF
F1
F3
F9
F5
F7
0F
FC
FD
EA
05
FB
F0
F6
00
01
ED
02
04
F6
FD
07
0B
00
FB
F5
F6
FA
EF
F2
01
F8
02
0C
12
FF
FC
EA
E0
F6
F7
FE
0F
0F
09
FF
06
09
11
F5
08
08
11
0B
15
00
00
FC
04
F8
F2
F9
F9
F7
EF
F9
08
01
04
01
0B
00
FE
FA
02
F2
F3
00
FE
EF
FF
0C
FA
EF
F4
08
F0
E2
F1
F3
F0
F7
F3
02
0E
0A
05
13
0D
0D
02
FD
F8
FD
00
06
07
03
FB
FF
06
F9
2C
08
02
F7
1A
F9
FB
09
0D
02
F8
04
0A
FE
02
FC
F3
08
13
FF
02
13
19
08
0F
05
07
06
F6
05
0F
10
03
01
FD
FA
03
06
0A
FE
F8
FC
F6
FB
06
FC
06
0A
FE
04
04
09
08
06
FC
FC
0B
22
0B
03
E1
0E
05
F8
F6
06
0A
03
11
FE
FF
FE
FF
05
08
0E
1B
05
00
FF
F2
FA
F9
F9
ED
FD
0B
08
FD
04
01
F6
EE
01
FF
0D
07
FA
00
13
18
FB
01
FE
18
FD
EE
FE
04
1C
04
FD
F1
10
F7
F8
09
F8
FB
04
08
12
0F
0D
F3
01
01
02
ED
00
06
FD
FD
04
03
0D
05
10
FC
FC
F3
0D
03
10
0C
FE
01
0B
18
FF
06
FA
F3
E3
F0
F5
02
D6
FB
FD
0B
03
04
01
FB
11
05
00
FF
D8
00
FE
F3
FE
04
FD
0E
FF
FC
FC
F7
EF
FE
00
00
09
00
F8
D9
07
FA
06
06
09
09
04
17
04
07
FC
08
03
08
05
03
F5
03
07
02
F1
F9
FA
F7
08
03
06
00
FA
FA
F9
FE
F0
FA
0C
04
FD
FF
03
07
00
FC
F2
F2
02
FA
FA
FB
14
0C
03
F7
15
FC
FD
0B
01
F4
0A
0A
F6
F2
DE
E8
08
F9
07
E3
0B
07
02
05
06
F2
FA
0B
04
EC
E9
E9
F3
F9
F6
08
FB
05
06
FF
FF
FF
FD
0D
0A
01
FA
FD
10
0B
0F
F7
FF
01
0B
0E
FC
FB
FC
F6
03
FB
03
F8
03
04
F8
FB
FF
06
07
06
05
05
FC
F1
F4
F4
EF
09
FA
FD
02
16
FC
03
F6
FC
01
F3
F5
01
0A
F1
F1
E9
0C
F7
E2
F5
12
07
F5
FB
0B
F8
03
0D
00
FC
FA
06
06
02
FB
05
FA
0C
FC
01
FE
00
FC
F2
FC
FE
06
FE
FB
08
06
05
0D
05
0C
06
E4
FB
01
F6
FD
F0
FD
0B
07
F0
02
11
0B
03
06
11
08
FA
06
FF
F7
FF
0E
05
F9
15
07
FA
06
02
F6
05
FB
0B
07
F6
16
03
07
02
EF
FD
FB
F3
F2
F6
03
FE
FD
03
F7
FE
15
FF
FD
FE
02
08
03
FB
0A
04
F3
FC
F5
FC
01
03
F8
02
08
1F
02
00
F8
FB
F7
02
06
05
FE
FF
F5
F2
01
F9
F7
EF
04
0C
FB
F3
F8
0B
0E
FF
F5
03
10
0C
08
FF
FE
04
09
06
F8
F6
09
0D
F7
EA
12
0A
EA
F7
FA
FB
F6
0B
FD
03
07
16
06
00
02
08
ED
F0
06
FF
09
0B
05
0C
FD
E4
F8
1A
02
E6
F3
F9
FE
FB
EB
F6
F9
09
07
19
EF
00
05
10
F2
F5
F1
FB
EE
FC
FC
F8
F7
04
00
F9
FA
0A
F7
00
F3
0A
17
19
E5
F7
F5
0B
0D
00
05
FF
03
F9
FA
FC
03
F8
06
FC
14
05
04
FE
FB
06
0B
F4
05
F6
01
F5
05
F4
03
FC
FB
02
ED
EF
F3
05
0C
11
05
11
03
EF
04
03
F7
F2
FB
06
06
09
0D
03
01
09
FA
F7
F5
FF
F9
F4
FA
02
04
00
07
07
02
F8
FA
F6
F9
FC
05
07
00
F7
FA
FC
06
F3
F9
F5
FB
05
09
F9
F7
06
FC
0E
06
07
F4
07
F5
FF
F7
ED
09
FF
FC
0A
FF
F1
FD
00
F7
E3
F3
05
19
10
01
05
D5
F7
04
04
F1
01
FD
01
F4
FD
0D
07
04
EE
FF
FC
E8
02
FE
07
F7
FD
0C
08
08
F3
02
EE
FD
07
08
F9
10
0F
11
F5
05
E9
FA
FB
04
09
FD
F8
FE
FF
05
F3
06
02
09
03
00
09
FB
08
F6
FB
11
08
FD
F9
08
10
FB
0A
07
0B
FA
0C
FF
05
00
05
FF
E9
F1
0B
FF
F8
F9
0E
07
07
06
0F
FA
08
FD
FA
F1
F4
00
06
01
05
07
07
00
08
F7
02
0F
06
FA
01
F1
F1
15
0F
FC
E3
E4
FD
22
06
F7
05
02
FC
FE
F3
03
FF
F2
EF
F7
F6
02
05
02
FE
01
EE
0E
F3
FD
EA
00
0E
0F
F5
00
07
04
07
01
0E
FA
F3
0D
FD
FB
F9
FB
0C
00
09
FE
F4
14
17
09
ED
09
02
FA
02
F8
01
FA
11
E8
F7
FE
0F
01
08
0B
0D
03
05
05
17
0B
02
05
06
0B
F1
F0
F9
03
0B
06
F9
F7
F7
05
00
ED
F3
02
07
FF
02
FC
08
02
FD
05
0C
06
0B
F2
03
09
05
12
FE
EE
0A
FE
F9
0C
08
12
02
02
08
03
0A
05
05
FF
04
F1
F8
00
0B
FE
0A
08
FC
0B
F1
05
09
F8
01
02
05
F8
07
06
FE
03
04
F1
FA
02
01
F9
05
15
0B
F8
04
25
0B
FD
05
FD
05
F7
F3
FE
0C
03
03
0B
0F
0C
08
EE
EC
FD
FC
FE
FA
00
F7
FD
05
F6
F7
EB
F5
FE
13
02
00
FC
08
F9
01
00
00
F8
FF
01
0B
03
01
02
FA
09
0F
03
FD
FE
FC
F5
F9
F6
07
F9
08
07
FD
FB
14
15
06
F3
F5
01
05
FA
FF
FB
FF
FE
F8
08
02
FF
0B
03
05
FE
FD
02
09
F3
E8
FE
06
F5
E0
12
FE
0B
1A
F6
F9
08
19
12
FE
EE
D5
05
05
FE
ED
F7
04
00
14
F1
FF
01
14
0C
0F
01
06
0D
FE
05
00
EF
FC
07
FB
F7
FF
08
F3
06
04
FA
FA
FE
03
00
F4
07
03
10
04
08
FD
00
03
07
FC
F1
FE
12
03
FF
F1
0E
0B
0A
EB
16
14
04
05
0D
0D
11
09
0F
FB
06
E3
02
02
10
01
FB
FF
11
0D
12
FF
FD
FE
FA
FE
F9
F5
09
0D
11
0E
0D
01
09
FF
EB
F8
F5
F7
04
F3
FB
FC
0B
F7
F9
04
0B
03
00
0A
F9
FC
ED
F7
FA
F8
F5
FB
08
08
FF
EF
04
08
FD
04
FF
F5
F6
EF
06
F2
07
05
11
06
02
0E
04
01
02
FB
E5
EA
03
12
E3
FC
02
03
F7
01
F3
00
04
FB
05
FB
F3
FD
FD
18
F8
0E
F7
E7
03
FB
FF
F3
17
FA
FB
16
0B
FD
0B
0D
00
F5
FF
F6
04
0A
05
09
FD
00
06
02
0E
06
07
08
06
FD
06
03
04
04
FC
FA
FC
F7
FE
09
EA
08
11
04
FF
01
00
E7
F9
FB
06
05
F8
05
0B
14
F0
FD
F5
04
03
0F
F2
F1
0F
F7
F9
01
0B
06
0C
07
EF
F0
02
09
FF
FA
F6
05
0B
F4
05
F5
0A
0A
0B
F8
ED
F9
07
17
F6
FF
09
0C
0B
03
08
EE
13
FC
02
FE
FB
F7
EE
EB
00
0E
F4
FC
12
03
03
07
10
01
04
03
0A
0C
FE
FD
03
FD
00
FE
FA
04
09
01
09
FF
FB
05
0C
19
1C
EE
0F
FF
F2
FE
FB
02
05
12
F4
F5
0D
03
F5
FB
11
23
00
12
0E
0F
FE
05
F2
EA
07
F8
F2
F4
0E
0D
00
FE
0D
03
00
F0
ED
F9
07
08
FD
01
F8
02
FC
FD
03
F8
01
11
09
FC
1E
0F
0A
FD
FF
FE
F5
FC
00
1A
1A
05
05
04
04
00
FF
00
F8
FE
F0
0A
00
FE
03
04
0A
FA
10
02
07
FF
08
02
0C
06
04
0E
FF
F4
F2
FA
F6
F5
E5
F8
FF
06
F4
FD
05
09
18
07
0D
00
ED
F9
F5
F3
E9
FF
05
1D
02
0F
05
F9
01
F3
FB
ED
08
07
0D
F4
09
F2
F0
FA
F1
00
FC
18
00
04
06
0D
F5
F8
02
04
F5
FC
02
FB
EE
F9
FB
F6
FC
06
04
F7
FC
F7
00
01
EE
FB
FF
17
04
00
FE
03
16
02
EC
E2
01
03
08
09
09
0A
03
FF
0C
0B
03
09
03
04
FE
FD
07
03
FA
F6
FE
02
0D
F9
17
0F
03
FA
07
00
F6
0B
0B
FD
F2
E7
01
01
F0
FF
01
01
09
1B
EE
03
04
07
04
FF
08
10
12
F7
08
EF
FE
03
F8
EE
FD
06
0C
02
00
FD
0E
02
F7
FD
01
03
07
04
FE
F5
EE
FC
02
FB
04
0E
03
F7
F1
00
07
FF
FD
07
03
FC
07
04
F8
04
00
05
F9
00
01
05
0B
1B
F5
FE
06
1D
06
09
FF
F6
FF
F9
07
0B
F9
03
FF
FE
FF
04
09
FB
FC
FF
01
0A
00
07
FD
00
05
F8
F7
00
ED
06
FD
FA
FC
F8
F1
EF
0F
06
0A
F5
FC
FE
06
FF
FD
F7
ED
F5
02
FC
F0
F8
04
02
05
FA
02
01
FF
FE
02
09
06
05
E4
EB
FA
02
11
0B
04
FD
17
01
FD
FE
1B
04
F7
08
08
05
0A
01
07
14
04
0C
14
02
FB
06
0C
FB
00
10
03
07
FD
F8
0A
07
FB
FD
E9
FF
01
01
FF
07
01
09
07
FF
09
06
FC
05
01
06
0D
F9
01
09
F9
02
F6
02
02
04
FA
F4
09
FD
01
FE
09
F6
04
15
03
02
11
21
F9
0E
0F
11
06
03
00
FE
FE
00
F9
F1
FB
02
04
0B
09
08
FB
FC
08
00
02
FB
F9
FA
01
ED
FF
09
04
01
01
0B
FE
09
09
00
05
F8
10
00
01
FE
04
01
08
06
FD
F4
FF
09
07
02
08
0E
FB
03
00
FD
FA
F8
F9
EE
EB
FB
F2
F5
FB
FA
04
FC
FE
F8
FB
06
F9
FA
FA
03
F8
FA
06
F7
05
FB
02
FD
06
FE
FC
04
F8
FB
05
03
02
06
01
F8
01
04
F7
F8
05
04
07
00
F9
FA
08
FD
F9
FE
FB
FA
F9
F9
03
FF
04
FD
06
0A
FB
FB
FC
F7
F9
04
04
FC
01
F8
FF
FE
01
F9
05
05
01
FA
FA
F8
FC
0A
F6
FF
FF
F9
02
FF
05
01
F8
05
01
FF
F9
00
FE
FC
FE
06
06
FC
FF
FB
FB
F9
F9
05
F7
FE
06
08
09
04
01
03
06
00
03
01
FD
F8
F7
00
01
02
06
05
05
04
04
FA
FD
FB
FF
FB
F8
FC
FC
04
F8
00
04
F8
F6
06
F8
FB
F9
FF
06
F6
01
04
FC
03
FB
03
F7
F7
FB
06
09
FB
02
F9
FB
FD
00
02
F7
FA
00
FE
03
FC
F9
FB
F7
03
F7
FD
09
06
FD
FC
FE
01
00
F6
FD
F7
FE
01
F7
FA
FC
FE
01
F8
02
FC
04
FC
FD
FB
03
F7
F9
01
03
01
01
FA
01
FF
06
FC
F7
F9
F9
02
FF
FF
F7
00
FE
0B
00
FF
05
FA
03
00
FF
FE
04
FC
F7
01
08
FD
FD
FF
FF
FD
FD
FA
09
FF
FA
06
F9
07
FE
04
08
F8
05
05
F7
07
F8
FC
F8
FC
02
0A
F2
F3
09
09
FE
0A
09
11
15
0A
07
0A
1A
0B
00
FB
FF
FA
0C
FE
FC
0B
0D
12
00
09
0F
FC
EF
07
00
EE
F9
FA
F4
EB
F5
F7
F3
EB
09
00
01
EE
00
EE
FB
02
F4
F9
F9
0F
F9
05
06
11
00
FF
F9
EF
05
02
0B
0A
0B
08
05
0D
03
FF
13
0C
0A
0C
01
F5
F6
07
F8
DD
FC
01
FF
F6
F4
FD
05
07
0C
FC
EC
F1
08
FE
01
08
F8
04
01
01
04
FE
F5
16
F7
FD
05
F1
F3
F9
FE
F3
F3
F6
06
F8
F7
02
FF
FE
FB
02
0B
F9
F6
F3
17
FC
F7
05
00
01
EE
FD
06
F7
0C
03
F3
EC
10
04
FC
E6
FF
04
FA
03
FB
0C
09
0A
F8
FD
F9
F9
F2
F1
FD
F6
F4
F7
F9
FC
F6
01
07
06
F5
ED
01
E5
F4
FF
01
FB
F7
FB
FA
0D
03
FB
FE
EC
05
F8
F1
F2
14
08
0E
05
0E
14
FD
06
F9
0C
04
FE
03
0A
EE
EA
04
0C
0E
1B
06
16
FE
0A
0C
01
FD
12
15
04
F7
F8
02
FF
09
F3
02
09
00
03
0D
17
04
07
FD
FC
F2
FB
0A
08
0A
0E
03
FC
05
FF
02
01
12
08
05
0F
04
05
08
01
FA
FF
FB
03
03
FA
E5
E3
FC
F8
04
01
04
05
FF
04
05
0A
FA
02
0A
04
05
F8
FD
00
FC
09
F0
EB
FE
04
04
F2
F9
F9
0A
14
06
0E
F5
F2
FB
03
0E
12
01
11
10
0E
0C
FD
03
01
E3
E1
F5
FF
FD
0B
03
05
07
06
00
03
FC
02
01
05
0B
FE
E2
DC
0C
04
FD
EF
FC
02
06
FF
F3
FA
F1
F1
06
FD
F8
0A
07
05
0F
06
05
F4
FB
08
0A
02
FE
06
E5
D3
E2
E1
F5
EF
F8
02
F2
FB
03
06
0A
0E
08
01
03
11
08
05
F7
05
0B
08
11
07
02
FD
15
10
01
0C
21
1C
03
0C
FF
FA
FB
1B
01
03
0E
19
11
FE
01
FD
F8
F4
01
F4
05
01
FF
02
06
06
FF
05
00
F6
FB
00
04
06
00
F1
FA
01
05
FB
FF
03
08
F5
05
FF
10
02
FD
12
15
0C
F7
01
0E
0E
F4
FD
F7
01
09
08
00
F9
06
FF
F3
F1
F0
F8
14
17
03
0B
0D
11
FE
03
F9
F2
F7
FD
12
17
07
F6
0D
14
03
05
09
19
F8
04
1B
F8
FA
EF
0A
11
06
10
17
08
FF
FE
01
04
F5
FC
EF
FD
EA
EC
D3
DF
01
03
02
04
01
FE
FD
FA
01
0D
FE
FF
E9
F6
FA
0D
11
12
02
F1
04
0C
05
F4
F7
03
06
0D
11
0C
07
FD
FA
0D
01
0C
00
0D
0A
FF
00
F8
03
02
FE
05
09
F1
02
0A
06
0C
08
05
01
0A
04
02
07
0B
F3
F1
F8
0B
FE
FE
03
FD
11
F9
EE
F6
F9
FC
FB
00
03
FB
E4
EB
00
04
08
F8
02
06
01
EC
EF
F9
F9
F8
FF
FD
F9
02
0A
03
F9
FE
04
FE
08
0D
FE
06
0D
10
F3
D7
F1
F6
F7
FE
F4
05
F9
FD
04
00
01
FF
F8
00
02
01
10
FD
F7
03
FA
FC
10
0F
0D
02
FB
FE
03
09
08
17
0F
00
05
03
04
F7
00
02
0B
01
07
FA
FD
11
F9
FC
00
0D
FF
FB
0C
09
05
02
06
05
F7
00
F5
00
FD
FB
FB
FE
F5
00
FD
01
FB
08
0B
05
05
FD
09
15
FB
05
0D
02
02
F6
09
01
FF
FB
F4
F1
17
0C
0A
FF
04
FD
FB
F6
FD
F8
F6
02
0D
04
0A
E9
09
08
0D
07
EE
08
FD
05
0D
F9
F0
FA
04
07
FA
00
01
FF
0B
0A
0B
00
FD
09
10
0F
06
02
06
02
00
05
FD
06
F7
FB
E2
F0
EF
01
FC
02
02
FB
FA
10
08
F7
08
08
F7
05
08
F7
FC
12
05
0C
04
F2
FB
FB
F4
05
0C
07
FC
08
FF
0C
FB
00
FB
04
FA
0E
FE
0C
07
03
08
0E
00
F8
FB
06
0D
09
FC
F0
FA
FF
10
0A
04
02
0A
0E
F7
F8
04
F5
FB
06
10
00
05
07
F7
F6
0A
05
0B
05
FE
F9
06
FA
F4
0F
03
01
0E
00
FB
07
FF
01
09
08
08
F8
0A
07
04
FB
FB
05
F9
FD
FF
0B
11
F7
0C
06
F9
F5
05
FE
F6
02
00
F3
FD
FE
FA
F6
FD
0C
F9
FC
0D
06
0A
08
06
F6
02
F6
F5
DD
F6
F8
0C
18
EF
09
03
F6
02
05
FF
F4
05
00
FF
F6
07
0E
FC
F7
0A
11
FF
F6
02
02
FB
01
FE
04
01
04
FD
01
09
FD
0A
FE
0A
02
04
01
F8
08
03
FC
FF
01
FF
02
F8
01
03
FC
00
08
FF
0A
FE
02
0D
0F
0C
FE
F9
00
0A
0F
06
0C
0B
FB
F6
03
F9
F1
11
FB
FB
F1
FC
E8
F9
E1
05
F9
0A
F8
01
FA
F7
F5
FD
F7
EB
DE
F5
F4
FE
0F
F6
FA
08
0B
0A
FF
F2
EC
ED
FD
FE
09
FC
F2
FD
F2
10
FD
F0
01
FB
F6
03
14
FB
F7
01
00
FB
FA
F8
FF
FD
FE
F7
04
04
02
F7
03
00
05
06
FA
F7
06
04
00
08
FF
FD
F8
FF
FF
00
01
00
04
FE
04
01
FA
FC
00
00
05
02
FC
02
03
FA
03
06
00
03
03
FE
FD
08
03
04
FD
03
FC
FA
F8
FE
03
FC
FB
FF
FA
F8
FA
FB
04
03
F8
FC
FD
02
FA
08
01
FE
F8
00
06
06
F9
FB
F7
06
F9
01
F7
01
04
FC
06
07
FF
FD
01
05
F8
F9
02
00
FD
FB
03
FD
FE
07
06
FF
F6
00
04
F9
F9
FD
F9
FA
FD
F7
FC
FF
01
00
F7
F8
F9
05
03
04
FC
00
06
FF
FB
F8
04
F9
FB
FA
F9
FE
FE
F7
FA
F9
00
FF
FC
FC
FD
FF
FC
FB
F7
01
00
FC
FD
00
FB
05
F8
F8
FF
FF
FB
FA
FF
FB
04
FD
F7
FD
FD
02
FC
FA
03
06
F8
FA
F9
02
FC
F7
F8
FB
FD
01
06
01
FE
FB
FE
FC
FB
03
FD
04
FD
01
01
F9
05
01
01
FE
FD
01
FD
03
FD
04
FA
02
00
FD
FE
FE
FA
FB
FD
04
FF
F7
F9
06
FD
03
08
07
07
F6
FD
04
02
00
08
FA
FC
FB
F7
FF
FA
06
05
F7
06
01
FA
F8
FF
FE
07
08
FF
0C
00
07
F0
0C
07
F9
04
F7
FA
F5
0F
F8
F3
F7
0C
13
06
0B
F6
0F
00
0C
05
01
FF
F7
F9
0C
11
FF
02
FF
08
07
01
F9
12
FF
FC
05
0A
01
F3
05
05
06
09
18
0D
01
09
FE
F2
FC
08
0E
FA
FA
13
01
F7
FE
FE
FF
FD
04
FF
28
03
FF
F6
04
F6
EE
FD
01
00
F6
F9
0D
0B
F7
E9
0D
03
EA
F3
FD
FC
02
FE
FB
0B
10
FB
08
FE
FD
0A
03
FE
02
03
F8
F4
FF
06
FC
11
00
FC
E4
03
F8
01
07
FC
02
03
21
0C
08
FD
08
14
FC
FC
00
00
00
FF
16
0C
0A
03
18
10
00
FA
03
0B
08
15
17
05
07
10
FF
F4
FC
0D
F6
03
05
F2
06
05
FB
F6
05
0C
06
01
FE
F8
F9
F4
FA
F6
08
05
0D
08
03
08
FC
FA
FF
06
FD
F4
12
0D
03
09
11
F0
F9
FE
F7
0B
FD
09
EC
FD
11
01
F5
FE
0D
04
F7
FE
F7
F6
06
0D
F5
EA
17
1B
10
00
00
F2
14
0E
02
01
FB
FF
08
19
00
0D
02
09
16
03
10
06
0A
F8
F4
F5
0F
0E
F7
EE
18
09
0D
FA
01
07
08
FE
F4
01
FE
16
EC
FD
08
04
09
02
F8
06
0B
00
E8
F7
03
07
FD
0C
E1
F9
0E
18
F4
FC
02
FA
06
06
09
F4
05
00
F7
F3
05
F4
F2
CC
F4
00
01
00
F1
09
0D
03
FD
02
FD
F8
F5
FF
0E
15
06
13
FF
EA
09
03
EF
DE
FC
FC
F9
00
FE
08
00
F8
EF
07
F1
FC
F4
02
FB
F8
06
07
07
FB
F5
04
08
15
F6
02
0F
00
04
01
0B
F4
FF
FD
01
EB
F5
0B
0B
05
FE
0C
EC
FA
02
00
ED
E6
05
03
00
13
0B
15
01
F7
08
FC
09
FA
EA
F9
FA
06
EB
F2
09
FE
06
F7
FB
E2
DA
E8
F8
FA
EA
00
1B
0C
F4
05
08
F2
F6
01
09
1B
FE
19
0B
F3
0D
FF
F4
E0
05
04
03
EF
F1
FE
00
03
FD
09
05
0D
0A
FA
00
FA
FA
FB
F0
F5
0F
07
F7
D7
0B
FE
E9
DD
0B
EA
07
02
F4
F4
08
00
06
13
07
03
F2
F8
06
F2
FD
FB
FD
EC
00
03
05
E9
09
03
0B
07
FC
0B
F7
12
FA
03
09
F9
FC
12
FF
EE
0C
1E
09
08
0F
09
01
FF
03
0E
04
FC
08
08
00
F3
EC
F9
0A
03
FD
FF
F5
04
14
FA
E9
F5
02
10
06
16
02
F7
F9
FE
F7
02
F7
F7
F8
01
FB
03
02
FE
F8
F6
F8
F7
F9
03
FD
06
FA
03
F9
FA
03
02
F7
F8
FA
FF
FC
FF
F8
FF
FA
F5
FC
FB
FB
03
F6
FC
FA
04
F8
02
F9
F7
03
F7
FB
FF
F8
02
FB
FF
F9
FF
FF
00
F8
FA
F6
FE
F7
FC
FD
04
02
FA
F8
02
FA
F8
03
F6
02
07
FC
F9
FC
F7
06
FD
F6
F6
01
FB
06
F9
F7
04
FA
F8
02
04
FF
F6
FC
02
03
03
F7
FF
F7
F8
03
01
FD
FD
03
04
FA
03
F8
F8
02
F6
00
FC
FB
FC
02
FC
00
05
00
FF
FD
01
06
03
FA
F9
06
F6
F8
02
01
F7
F9
02
04
F5
03
F9
06
FA
02
FA
04
05
F9
FE
FF
F6
F8
F8
05
04
04
FA
FE
01
F8
FC
FA
FD
FF
FF
F7
02
FA
00
03
FB
FB
04
00
FF
04
F6
02
04
02
04
F6
04
FA
00
F9
FB
FB
F7
01
FC
03
FE
F6
03
FC
F9
F7
F9
00
F6
FD
FF
02
05
06
FD
03
FB
F8
02
FA
FD
04
FA
FF
FF
FD
FF
FC
FD
05
FF
FD
FA
FA
F8
FC
01
FD
FB
00
F9
FF
04
04
F6
FC
FB
04
F9
01
FC
FA
FC
03
F9
FD
FC
00
FB
FF
FD
FF
02
F8
09
05
FF
03
09
0D
0F
FF
F2
F0
F3
F8
14
EC
F5
04
06
F9
09
F8
F9
0B
FD
FA
01
FC
EA
E7
E7
FF
F6
EA
F9
04
FA
05
0B
02
F9
FE
0E
F3
05
FD
06
04
FD
04
F4
0B
05
04
ED
F8
04
F3
E7
FF
03
07
FC
F9
0F
09
12
E4
FD
0C
F9
F8
0E
10
F0
F9
F1
FB
12
F7
F4
FF
16
FC
F1
14
14
0D
01
FA
07
03
FE
06
0B
FD
05
FE
07
F7
07
FD
ED
09
15
07
E8
15
11
06
FE
17
00
05
F4
F7
F5
09
F6
E3
FB
F5
03
13
FD
FB
03
07
08
FF
EC
FD
03
01
02
E7
05
07
09
F4
FC
00
10
F9
09
06
FD
08
0C
0A
DD
05
00
02
FB
FD
F9
F1
F7
00
05
01
FF
FF
FD
10
0C
F8
FB
04
0C
08
08
F8
F0
06
FE
FB
F1
03
08
F2
EC
F9
02
01
13
06
06
0D
06
01
FD
17
21
F6
F9
0C
06
F7
FB
11
05
FF
00
1B
1E
05
0C
F2
2F
F0
EE
EE
FB
FA
03
04
F7
04
11
09
1F
F8
07
01
10
EF
07
EB
ED
FB
03
08
06
F0
04
07
01
F1
08
05
16
FA
05
09
0C
08
05
F6
FB
FB
05
F8
FD
FD
02
FA
FE
0A
FD
F4
F4
07
0A
05
FF
03
05
FF
F8
FA
08
06
F1
FA
01
FF
FD
06
01
FE
04
FC
F9
00
F2
00
FB
FD
05
F8
F7
03
F6
01
F8
00
F9
FA
00
FC
F6
FE
F3
FB
FC
FF
02
04
FF
00
00
00
04
04
06
04
F9
F9
F5
FF
02
01
FB
FB
02
0A
00
FD
FD
F4
FF
05
EF
05
01
FE
00
FB
F5
FA
01
03
F5
04
05
FD
F6
01
01
FB
FF
F6
FC
FD
08
F6
02
FE
04
FE
03
F9
FB
F1
F7
03
FA
FD
FC
FC
F7
FB
04
F6
FC
F5
00
FE
FA
F8
00
FF
F3
FE
FD
EE
03
F9
06
FE
F7
FE
F9
F9
02
FC
F4
FA
FD
FF
FD
F8
FE
FD
02
FE
FF
FB
08
F6
01
02
00
FB
F6
F4
07
00
FD
FB
F8
05
F9
FE
F8
05
04
00
05
FC
FC
02
00
F6
00
FB
FB
FC
F8
FD
FE
FD
06
07
F7
FF
F9
FC
FC
F9
00
FD
F9
FD
FE
FF
FA
F8
04
00
FE
01
FD
F8
EC
FC
04
06
F3
02
F7
01
FB
FA
F8
F7
FC
01
FA
FF
FA
FB
F1
00
04
03
00
FC
02
FA
F5
FA
00
F8
F6
F3
01
FE
02
FE
FF
FA
06
01
FA
FB
02
04
08
F8
F8
01
0E
03
05
09
03
10
00
FB
F5
11
14
04
F3
0B
00
F7
F5
08
04
03
04
0F
06
FE
FE
03
04
FE
14
06
FD
F9
F2
FE
F2
FF
FF
FD
FA
0C
1D
08
03
03
F8
FA
04
06
0D
0A
10
00
07
FA
04
F5
F6
FE
00
00
FA
FC
02
09
FB
F3
01
07
FF
F8
0C
0F
09
03
FF
02
FA
05
F9
04
0C
02
01
13
12
07
0C
01
04
07
FE
01
FE
F2
F2
FE
09
04
06
FD
02
09
14
FD
EF
F8
E8
F4
0B
FE
05
F5
0A
FD
FE
00
00
F8
EA
F2
02
ED
EF
F2
ED
0A
10
0A
0B
FA
01
04
06
FA
F4
0B
11
01
FF
01
F4
0D
0B
05
13
12
11
00
F8
03
FB
F1
F5
F6
02
09
04
02
08
FC
0A
05
FC
FB
01
FD
03
FA
00
FA
F7
F6
F7
F9
0B
00
F9
FC
03
F5
F9
F4
F8
FC
10
06
04
FD
F8
0F
02
11
01
F8
F5
FF
06
F7
F4
07
06
F4
F1
00
0B
03
0F
FD
F4
0B
09
01
01
FE
F5
00
05
03
FC
EA
ED
F5
FC
FD
0D
FD
FD
03
F8
04
07
01
00
00
0A
FF
09
ED
F8
F5
03
03
FF
FF
09
19
FC
0C
00
FC
F6
F8
01
F7
0D
0D
FC
09
13
F1
E9
0A
F1
EB
FE
F2
08
18
01
E8
F5
07
FB
FA
FA
FD
FC
FF
FE
00
FA
FC
F3
FA
FD
F3
0D
0B
18
FB
09
FF
FD
05
07
08
0F
F2
FA
00
05
02
0B
10
EE
0E
02
F8
EF
02
FC
F4
F1
12
10
0C
FF
F0
F4
00
FA
F5
FE
FB
F6
0A
FE
F6
EC
04
0A
16
11
F9
06
00
0C
FC
04
06
F1
F9
08
F2
F4
00
F9
FD
FD
F5
06
01
F2
09
11
FC
E1
08
ED
E9
F6
FE
00
F5
01
0F
FD
FE
0A
FD
F6
00
10
FD
02
09
00
FF
FB
F2
E9
FF
EF
FC
0E
EA
00
0B
0B
0E
03
04
FC
FB
06
0E
02
EE
01
00
F0
FC
01
05
E9
03
F9
FD
F6
F1
F2
07
00
03
0A
08
05
FF
FB
06
04
09
FB
FF
FA
FB
09
FD
E8
0B
01
F9
FF
05
FD
04
04
03
02
05
0C
FF
19
15
0F
F3
EB
03
0B
F7
06
08
FD
0D
0B
FA
EC
05
0C
11
02
FA
F9
FE
FC
F6
FA
09
05
FE
F7
02
ED
06
11
07
E7
FF
04
02
03
00
FE
0A
0A
FB
0C
FD
F9
FE
F3
00
0E
F7
FF
F5
F2
09
00
F0
F4
05
EE
ED
FC
00
06
02
FC
0F
00
01
FA
0E
FD
06
0A
0A
F5
FE
FE
05
00
F8
07
09
00
03
FD
08
FB
FC
05
02
09
0C
FA
00
F0
EF
ED
05
06
00
E5
09
04
0D
F3
F8
FC
0C
10
0A
11
0B
07
09
07
FC
FA
02
01
02
0F
0C
F9
FD
03
E7
F9
F4
EF
F2
FE
FE
04
1A
01
F8
04
02
0A
01
FC
07
00
07
01
01
0B
03
FA
0E
07
02
03
FE
F9
0A
F7
F5
FF
13
07
0A
FD
02
FB
03
FF
F9
01
0C
11
03
FB
F1
09
FA
F6
DD
04
FC
03
E4
02
01
F8
02
00
FC
01
E4
EC
EB
DD
E3
FB
FD
0B
FF
10
FD
04
06
08
08
FF
0A
04
0E
1C
12
0D
04
0B
02
07
03
02
FD
07
F9
F4
F7
0E
00
FE
F9
0B
06
FE
03
FE
01
02
F9
01
F7
FE
FE
04
F8
E9
07
0B
F8
EC
FC
F4
F5
F1
FF
F2
F9
F9
00
FF
FA
09
01
0E
02
01
0F
01
F9
F4
FC
02
0B
F5
F2
F4
01
14
F5
FD
FF
22
16
F7
F8
F4
02
FC
F8
FE
F4
0A
FD
17
FA
0B
FF
0E
02
03
FA
F5
13
04
FE
F6
FE
FB
F8
F7
0C
04
00
05
12
06
FD
07
05
FC
FD
10
01
02
FE
05
03
01
F2
00
0E
10
FF
00
FF
01
01
02
F6
FE
ED
00
E0
FB
05
03
F2
FD
FD
0C
0B
00
0B
06
01
01
02
FD
FB
F0
05
18
FF
FB
F9
16
FF
F5
F9
15
EE
FB
F9
F7
05
F8
EE
FE
0D
0D
0B
FB
14
0B
05
05
09
04
04
F8
10
07
00
09
F1
02
07
F6
F9
F9
F1
02
F8
E6
FC
00
F9
00
0A
0A
FF
F6
03
0C
11
0C
09
FE
0A
05
FC
09
1C
0D
FF
FE
FA
01
F7
04
08
F9
F6
06
12
02
04
F7
14
0A
02
EF
16
04
01
F9
00
F9
F5
F7
07
09
0B
FE
15
13
F3
F6
01
F8
F1
0B
F1
FA
ED
F9
FE
04
FE
FD
E4
F4
FB
F8
11
09
11
05
03
05
07
FE
FA
FE
FD
FB
FC
F3
FA
01
0B
06
00
FC
0E
0A
06
08
00
07
00
07
04
FB
FC
12
04
F2
FF
0B
FB
F8
F7
06
FB
08
FE
FC
15
0D
01
01
03
00
0C
08
FF
04
F8
FC
0C
08
0B
FD
11
01
F5
FB
EF
FC
0C
0D
F9
F7
04
03
FD
FB
FC
FE
04
FC
06
F3
05
03
00
FC
07
0E
09
FE
07
FD
00
FA
0D
01
F6
0C
F7
FF
08
FB
F4
09
FC
02
FD
03
FF
02
04
01
02
FD
F8
FC
FB
F7
FF
F8
F8
FF
FF
00
F8
02
06
05
FD
FE
FC
F7
F8
FB
FF
03
F8
FD
FF
FF
07
FE
04
F7
F9
FC
F9
F9
05
05
FC
FF
FF
02
F8
02
FE
00
FF
FE
FF
F7
01
04
F8
01
FA
04
F9
01
05
00
FD
00
07
FE
FE
06
FA
03
FB
00
FE
F9
03
01
F9
F8
FA
02
F8
02
05
FC
08
FB
F9
05
02
FA
01
05
FD
FF
03
F8
F9
FB
FF
FE
03
FF
F9
FF
03
FE
FE
F8
F8
03
07
FF
01
FA
FC
FD
FA
FF
FE
03
FC
FB
FD
FF
FF
FD
F8
FE
F7
06
03
F8
FB
00
FC
FA
03
F8
FA
07
FF
04
06
01
00
03
FA
03
FC
F8
04
05
00
01
03
03
F9
F8
03
04
FC
FF
05
FF
F8
07
F9
FE
F8
02
00
00
F7
FE
FB
06
06
03
02
FD
05
03
FF
F7
FC
05
00
FB
06
FE
FB
06
FD
F7
02
03
FE
FC
03
FF
F9
FE
03
FE
FD
02
04
00
06
FA
FA
FF
FE
00
06
04
F8
07
F8
FC
04
FF
01
FA
05
F8
FB
05
F7
04
FF
F8
FB
F8
03
F8
F8
05
06
FF
F8
06
F8
FB
F8
06
FF
F9
FC
00
05
FB
05
05
FE
F6
FF
03
02
FA
09
0A
0B
01
13
07
FA
0E
0F
06
14
07
1A
08
04
F8
0B
06
06
ED
14
08
FC
F8
0C
06
12
1A
09
00
04
08
F7
FF
02
FE
EE
0D
0C
F0
0D
02
00
FE
F8
F9
F6
FD
07
05
11
FC
0E
05
FD
FD
F2
F9
EB
EF
EE
F9
FF
F7
FB
F2
F9
1B
0F
0D
0E
0F
04
0C
04
06
F9
04
02
F3
0A
03
FF
EF
00
02
F9
FF
06
F2
F8
F4
FA
FB
FC
FB
0D
06
0B
09
18
0F
08
0D
F2
0F
09
FA
EA
FC
FE
F7
DC
F6
01
FF
D0
E6
03
0B
E5
09
F1
10
F5
0D
06
FB
E2
EA
FA
03
EA
FD
0F
03
0F
10
13
00
17
10
F9
FA
09
06
F9
F5
0A
06
FF
FA
0B
0D
03
04
F9
FD
03
F3
FF
FE
FF
FA
F5
F7
05
01
FE
FD
F4
01
05
07
F8
00
F4
F4
F8
0E
EB
EA
13
07
00
FB
00
F4
12
FE
FE
EC
0A
06
FD
FE
0A
10
12
0C
F0
FF
FB
F8
03
07
F9
02
0A
01
04
16
09
12
0C
0E
FC
0D
02
08
FF
FF
03
03
0A
08
08
F3
17
09
EE
FD
07
FF
F6
F2
ED
FD
FF
FE
0B
0D
0C
05
18
15
11
03
FE
FE
F7
FC
FD
0B
08
0B
02
07
08
F9
0A
05
FA
07
F8
F2
F8
07
F9
FB
12
10
FA
0D
02
F3
FC
06
FF
08
04
01
08
F8
07
F9
F6
F4
FA
06
04
FA
00
08
0A
E8
ED
F8
FC
F9
00
0D
05
FA
02
0A
FD
F3
FD
FD
03
FD
F6
06
0C
FE
F6
F8
0C
04
E5
FC
04
07
13
0C
11
02
02
F1
F4
07
FC
FE
FB
01
FA
0B
0D
FC
FF
08
FB
EF
EE
F9
F6
F8
F9
17
04
FA
FF
06
08
F9
03
00
FA
00
18
0B
14
0C
00
01
10
04
F5
F7
02
01
DC
00
FF
02
0E
05
1A
05
F5
0D
03
F8
F2
FE
06
04
0C
12
14
F3
F7
F6
F6
FB
FC
16
0C
04
FC
12
04
EF
06
07
FA
FA
FD
02
FC
FD
FB
03
08
02
0E
07
04
FE
03
FB
01
02
03
08
0A
01
0B
FC
FA
F9
05
04
0D
FB
01
00
12
FC
F3
F6
FD
FE
F4
FB
0F
08
F2
FA
FE
03
02
FC
FC
FC
FC
00
04
01
FE
00
0A
FF
F7
F7
FA
F8
FF
11
FC
EF
FB
FC
F7
03
FE
0B
13
05
06
0A
02
02
FB
F7
03
03
E7
F2
FC
F3
EA
01
FD
0B
0E
03
00
FD
18
0D
FA
FF
FF
FC
FA
F6
F2
05
FD
01
FF
FA
FA
FA
0D
01
00
F7
ED
E5
F5
02
D7
FC
FD
02
F0
FC
FA
05
F9
FF
FB
00
03
FC
02
0A
05
F0
ED
05
FB
F0
FD
0A
FD
00
F6
FA
E1
E8
EA
F4
EF
F8
FC
03
FB
03
FF
00
00
07
FE
FE
00
02
03
0B
05
02
0C
06
FB
0A
02
F9
FD
FF
FC
FC
F5
EA
EF
03
F2
E1
F9
14
F4
F1
01
00
07
03
03
F9
02
FE
F9
FC
FA
09
05
FB
09
00
04
FE
FC
02
05
F8
16
06
02
0B
09
04
FD
00
14
01
FC
FF
04
01
07
09
17
12
0C
22
07
0B
F4
F9
03
F7
F1
00
FA
FE
F1
FD
E6
F2
01
FB
E6
ED
F3
F8
FF
F8
FF
07
09
00
F8
02
08
FE
F2
FB
FC
FD
F8
F3
FE
01
FC
01
08
FE
09
F9
03
0C
11
20
0C
07
08
11
04
05
09
00
05
FC
F6
07
EE
FD
FA
FC
07
04
02
07
F9
FA
05
0F
00
05
F8
F8
02
05
03
02
0C
08
F2
F8
F0
F4
03
F8
F8
01
06
07
FD
F4
08
06
F9
F3
F9
FB
03
FE
FB
0B
F0
05
05
07
F9
FC
F7
F1
F3
FE
F6
FE
F9
F7
02
FB
FD
11
05
F9
FE
F9
FF
FC
05
F9
FF
00
04
02
09
04
FB
FD
F6
09
04
08
FB
0D
DB
F7
07
FD
EB
FD
F8
F0
05
07
FF
06
FF
0F
08
FA
FB
F0
05
12
FE
F3
02
07
03
FE
0F
0D
E9
EF
02
F8
EA
F6
F8
FC
00
0E
0B
02
03
0F
01
10
02
06
06
FA
18
04
FA
02
03
07
0E
FE
F3
FC
00
E5
08
01
03
F6
F0
EA
0E
06
E9
EC
FB
FF
03
FD
03
0C
06
FD
F1
F8
18
13
12
FB
FD
0E
00
0B
FC
F7
ED
EF
19
04
0D
07
F8
FA
09
02
19
09
06
FE
0B
05
FB
FE
F9
10
13
14
13
20
FD
01
0B
04
F9
0D
FD
FB
F7
F2
03
05
01
FA
E5
F9
EC
E9
FC
13
0C
FE
0E
FF
FC
FE
05
FF
F4
03
01
FB
EE
FF
09
02
04
02
FF
0E
FF
0B
FA
FF
04
06
00
09
09
12
13
02
0C
1D
08
F2
07
0C
F2
01
04
F9
10
03
02
F6
0C
09
0E
05
F4
FA
FA
EF
00
09
FD
F9
0A
00
F8
F1
FB
FD
06
09
E6
FB
F1
F6
0B
05
0B
03
00
FB
07
FE
FA
FC
ED
F2
13
FE
EE
FE
FD
01
FB
F8
0F
18
F9
05
E8
F9
10
06
ED
0A
F4
FE
08
FD
01
FF
F9
11
FB
09
FB
03
F1
F0
07
EF
F3
FA
0D
FF
07
F5
02
09
03
FC
0B
10
08
04
04
F9
07
0D
00
04
FE
FF
F9
09
F9
0E
F3
03
FF
07
FA
08
03
F7
FC
FB
01
07
0C
16
16
FD
07
0C
FF
F5
F9
EB
EE
FD
03
07
0B
05
F5
F7
0B
04
DB
EF
FB
01
25
0F
F5
EF
0A
08
FE
FD
02
0C
FB
F7
06
10
08
FF
03
03
FE
FD
01
FC
F7
01
FB
0E
03
FB
F2
F7
01
E5
0B
F5
07
FD
FC
F1
FB
05
FE
E9
06
04
F2
E1
0B
FF
E3
0F
04
F0
FD
01
11
F0
FE
F5
FB
02
D5
04
02
0B
14
26
02
EE
0B
02
01
F6
02
11
08
F9
14
1A
04
F5
E2
EF
02
0F
FE
FB
07
0A
FB
00
04
0E
04
F8
FA
F4
03
F1
EC
FD
F3
EE
FD
FC
FB
FC
FC
02
F4
FF
01
09
F7
05
06
07
FF
FF
FC
03
FC
F7
0E
03
F9
FD
FE
01
FF
08
FC
EF
FF
F7
FD
F8
00
05
0A
E0
E3
0A
14
09
03
0F
02
FD
FE
F4
F0
EB
FC
01
11
FC
11
0E
0D
10
07
02
05
01
F9
04
01
11
FD
01
FE
0F
00
F3
DC
E7
17
0A
FE
FC
EF
F2
FD
FF
00
0B
09
FE
10
11
FC
02
05
04
F9
F0
F2
03
03
1C
F5
F8
05
0D
FF
0C
F6
FE
01
03
03
F8
08
F2
F1
E8
FB
FC
FF
03
05
F8
10
F5
01
F7
02
19
ED
FF
00
10
01
11
09
00
18
0B
FF
F4
07
00
F9
F0
0B
0A
FD
FA
F3
01
04
FC
F8
FE
0A
FB
F8
0E
07
EC
03
F7
18
17
F8
02
0A
0F
09
01
0C
FC
11
01
05
00
FC
FB
FB
FE
00
10
03
F5
0A
07
00
E8
0C
13
F7
F5
14
08
F9
FE
14
FE
F8
05
F0
F4
02
03
D9
FE
04
06
03
FE
F9
E5
F5
FA
FA
04
EE
0C
07
05
FD
08
0B
FD
ED
F9
0C
14
00
0F
FD
04
10
01
F6
D9
11
F7
F8
EF
FB
F3
F9
F9
08
FF
0D
FF
0C
09
FD
0B
FC
02
01
08
06
07
FE
F1
10
F9
F9
F1
FF
03
F8
E2
FD
00
FA
05
04
06
0D
07
05
F8
07
09
E7
06
15
FB
F6
06
09
F1
0C
FC
FC
0C
FA
FF
F2
12
F4
EF
03
F9
FA
FD
FF
E8
04
10
FB
07
F5
08
FD
07
FB
01
FD
FA
FB
01
FF
FC
F6
F3
F6
02
FD
07
02
00
0C
12
0D
0A
FD
03
F3
01
09
FB
FE
04
FB
07
02
08
06
04
03
03
00
10
07
E9
F3
FC
FC
03
E0
FC
03
12
EA
FF
F6
00
07
FA
F8
FE
0B
FB
F8
00
0C
FB
F9
02
0B
FE
00
14
14
FF
F4
07
F9
FA
06
07
EC
F5
FE
04
07
0B
F9
F3
FB
0F
05
EC
FE
04
07
0D
FE
0F
05
F8
F1
FB
05
FE
EF
FF
02
F7
F4
F0
FD
0A
07
F7
00
0E
F9
00
01
13
06
03
F6
03
F8
FF
08
0C
05
FE
FC
FC
FD
00
07
FE
FD
0C
03
EE
FC
05
00
04
15
03
06
FD
13
10
F9
FF
0D
FE
FF
0B
0E
FA
FC
0E
0F
00
F8
FD
10
07
02
04
F9
F4
00
07
F7
F3
05
08
F1
FC
FA
09
F7
F1
05
05
05
03
F7
0A
FB
FB
F6
04
06
04
03
03
0B
02
04
F9
0E
0E
06
F9
0C
13
01
15
09
06
FF
01
10
0B
02
FC
00
FE
EC
0A
01
06
04
0B
00
FC
F3
F5
FB
EE
FB
01
FE
FB
04
00
03
03
06
0D
FC
02
ED
FD
F5
E4
FD
FE
EF
F0
F8
FD
EA
0B
08
0A
FC
05
05
0A
FA
F8
FC
03
F4
F8
0E
0C
FE
02
05
F8
02
05
04
02
04
0D
10
F8
FB
09
0E
F9
F5
FF
0B
07
04
F5
02
00
03
FD
F5
EC
FB
EB
0B
02
F5
DC
F1
0C
EE
F0
06
0F
FF
F6
0B
F9
07
FC
F7
F3
F5
12
FE
01
F8
0D
FB
16
FC
0C
00
0F
03
0B
06
F1
E9
F3
0C
18
F7
EE
FF
F6
01
FB
F3
E8
FE
FC
06
F8
F9
03
14
07
06
02
FB
F4
F8
04
F6
F9
03
F9
F5
F1
FA
F9
E4
F1
F3
04
F0
07
F1
FE
F1
E9
FB
02
F9
F7
F4
00
15
19
0A
FB
F8
07
EF
F7
ED
EF
FC
F3
F5
0E
DF
F0
07
07
FA
EB
0B
0D
F5
12
03
0B
0D
0F
10
FB
FD
0F
06
0C
F2
08
06
F8
06
0E
08
09
12
15
0D
F8
F1
EA
FF
21
F6
FB
10
10
FD
04
F8
E6
F8
04
F7
E4
EB
09
0F
FB
FB
FF
06
0A
0F
F7
FD
00
09
FF
01
04
F2
09
01
14
FE
0E
00
F6
05
0D
F9
0B
FD
09
19
F8
E9
05
FC
16
F2
08
05
F8
06
F9
F1
E5
F9
0C
EF
F0
ED
F4
16
1C
F7
12
10
03
FF
06
F1
F7
00
FF
F7
E9
DE
E7
13
08
F6
F9
06
08
07
10
FD
EE
08
FE
05
F6
EA
0D
12
0E
FE
F6
17
04
06
E5
FD
F1
03
F2
00
FE
02
FB
F8
04
EF
FC
03
08
F5
F9
12
03
14
FC
FE
06
15
06
10
FB
13
02
02
00
07
05
FF
01
02
02
00
ED
FD
06
03
02
FE
04
02
E9
F4
03
F4
FE
E8
1A
08
16
10
FE
04
FB
EF
F3
FE
07
01
0B
12
06
FC
F8
FB
F2
FB
FD
04
F8
EE
05
07
07
E8
EC
F7
08
09
09
08
FE
02
02
FE
EE
FC
F8
F6
0C
FE
F5
01
08
F3
08
06
FB
0F
FE
F7
FD
EA
F5
FE
01
F4
EE
FE
10
17
0E
05
FE
F5
F6
0A
09
FF
FE
0C
FB
F3
F8
06
00
E8
D9
FC
02
E6
F5
FC
06
0E
07
08
04
F2
E3
F8
F0
E9
F9
FD
0E
14
0C
02
F1
FE
FF
FD
FE
19
11
0D
02
01
00
FE
F7
FC
FD
03
03
FA
FA
FD
F8
ED
F5
11
05
F3
ED
FD
08
F5
00
FE
05
F8
05
05
EC
FB
07
F8
EB
E1
01
05
0D
0B
03
03
03
07
09
0E
05
FF
06
01
FA
05
09
0D
0D
FA
01
02
F4
06
12
FD
FE
02
05
02
06
08
00
02
03
06
05
11
FE
FB
FB
FD
02
00
0C
10
FD
FD
FD
EB
F0
F9
FE
03
01
DE
F2
FB
FD
FF
F1
0D
12
17
07
0B
09
06
0A
0C
0A
03
E1
EF
F4
EF
EE
F0
F7
07
0A
0C
02
FE
08
0A
FB
FC
FC
FE
08
FC
08
F8
EF
F2
F0
FE
00
0E
03
02
0B
03
F9
0B
0E
FC
F5
FD
FE
0A
FC
DA
E8
FE
08
0E
10
03
F3
F0
EB
E2
DE
F3
03
FF
01
09
0B
08
0F
F8
FD
11
FC
E6
F3
08
FF
05
04
11
11
0A
17
ED
05
04
00
F6
02
06
08
09
FB
E6
F7
ED
F5
F1
0A
08
F9
09
FF
F6
DE
F0
FC
FF
F9
01
03
07
05
14
24
0F
06
0D
F8
08
19
FB
FC
03
FF
F7
FE
04
08
08
00
06
1B
01
F4
FB
0B
FC
06
06
08
03
03
02
06
02
F7
F3
FC
FD
05
07
E6
EF
0F
03
F3
E7
03
F7
FB
FB
08
00
FF
FE
FD
02
FF
03
FA
F5
FD
F6
F1
02
07
03
F2
05
10
FA
FF
12
14
FC
FD
04
F8
0B
08
0B
F8
F5
F7
FF
03
04
03
0C
FB
EB
DB
0C
00
F3
F2
0C
0E
02
09
09
09
FE
07
0F
FF
F2
EF
04
F5
F4
10
07
06
0B
33
16
17
0C
F8
03
FA
F4
FE
0B
F9
EE
FE
01
F2
F8
0A
01
02
01
FA
F6
E4
F7
F5
FB
00
00
F6
0D
08
11
03
04
FA
FC
FA
03
03
FC
02
07
01
F8
FC
FC
FF
FA
FF
01
FE
F9
03
FF
FB
04
02
00
04
01
FA
FB
F4
FA
02
FE
FE
02
F8
FA
F8
FC
F7
04
FD
01
FD
FC
FF
FF
04
02
04
01
F9
F9
00
F9
06
F7
FC
01
FA
05
F9
FE
00
F7
F9
F7
FC
00
FA
FB
03
FD
03
FF
FB
FB
08
01
03
FF
02
F9
FC
FE
FD
F9
01
FA
F5
FA
FB
F6
00
FE
04
FA
04
FF
FB
FE
FE
FF
01
FE
F4
FB
FF
02
FE
F6
00
00
01
F4
F8
F9
05
FB
FE
FB
FC
03
FC
02
FD
F8
FB
00
00
01
06
05
04
00
06
F9
F6
FE
01
FC
FC
04
00
FC
04
05
00
FE
FF
F8
03
F7
FA
FE
FB
FA
FD
04
FF
03
FB
FE
FB
FE
04
01
F9
FF
F9
01
FC
FE
FF
04
FF
FD
02
02
FE
FD
FC
01
FD
FD
FA
FD
FC
FA
01
03
FC
FC
FD
F8
00
FD
FE
F8
02
00
FE
FD
FC
01
FC
03
F8
03
01
F6
FC
02
03
FF
07
00
F9
00
03
00
F8
FF
07
05
FC
F6
FC
FA
FC
FD
F9
FD
03
07
FF
FA
FA
04
FF
FB
04
07
F9
02
FD
03
FD
FE
F5
00
FD
F8
02
01
F5
FD
06
00
01
07
F9
FE
0A
EE
F9
04
FB
EB
E5
ED
E5
0E
08
0B
FC
08
FD
0B
FD
05
F8
06
07
03
F0
F4
FD
F9
05
04
FE
FA
00
09
05
00
FD
09
1B
04
0E
03
E9
00
08
0A
0A
09
00
05
18
04
FF
03
08
DD
E7
E4
F2
FC
FB
F9
0A
FD
06
07
17
0D
05
FF
0C
08
F5
E2
D7
0B
0E
08
EB
FB
03
FC
02
F3
F7
F7
04
FF
FD
FF
03
0E
03
05
05
09
F9
07
11
FC
F6
02
FF
EC
DB
F2
E9
02
FE
FB
FD
F0
04
01
02
FB
FE
FA
04
00
00
0A
14
FD
09
0D
0D
0F
0C
05
03
19
FC
FB
13
0C
09
0A
0F
11
0A
04
FC
F9
01
07
11
02
F7
03
17
E4
EA
FE
F8
02
0C
F8
F8
0C
01
00
FF
F7
F7
FC
FE
F8
F3
FF
FE
FD
F8
03
0B
F7
07
09
15
F9
F7
09
12
FC
0C
09
04
F7
F0
FE
02
00
03
05
FE
06
0B
08
12
04
F1
F6
F1
F7
FE
00
0A
FD
18
28
20
06
0E
F9
FC
FA
07
07
04
0A
00
0F
1E
04
02
0B
03
03
FA
0F
00
EC
E8
02
14
14
0E
05
03
13
0C
0D
04
F9
F5
FD
F4
EC
F8
D8
D9
0D
0C
05
F8
FF
06
0E
F9
07
01
00
08
FC
FB
09
06
FB
FB
08
FA
0E
FB
03
FC
12
01
FD
0B
FE
F9
FB
04
06
08
F8
11
00
05
F5
02
05
0B
F3
FC
00
09
FC
EE
0C
FF
02
04
0C
03
02
02
08
FA
06
13
FB
F8
00
09
0B
FA
05
0F
F2
F7
05
04
09
03
FB
F6
F4
E3
EC
01
08
F7
FA
F5
12
11
EC
F9
07
0F
F5
FA
F9
06
FE
FF
FC
0A
08
03
F7
FE
08
01
05
FA
06
16
EA
F3
09
F5
F1
01
09
0E
F6
F7
06
0C
FF
FD
11
FF
0F
09
12
FA
06
18
09
0D
02
FC
05
0E
0D
FA
F0
EF
04
FC
00
FE
09
F5
02
12
06
01
FB
09
F6
F7
0D
0B
F8
FE
03
FF
09
0D
03
F7
06
01
04
01
FA
04
04
05
FD
F8
06
07
0D
08
04
21
06
FF
04
0E
02
05
FD
FF
F9
0F
FB
F3
08
01
F7
0C
F1
FB
F9
0C
02
06
F7
0D
0A
FD
F4
0A
0B
01
FF
08
FB
E8
0A
00
FE
FF
01
F5
09
FD
F2
F3
E6
E8
04
17
03
FF
FD
02
00
FD
05
10
E3
E4
06
07
08
FA
FF
F7
F6
FD
0D
E7
08
FC
02
05
F3
F3
F7
FB
03
02
F9
F9
08
0A
0C
01
13
0F
F7
F7
EE
EC
EE
03
F9
02
09
01
F2
08
07
F9
0C
04
05
00
02
07
FC
F0
01
F5
04
EE
FF
FC
04
08
F9
09
0F
08
0B
07
FD
10
F7
01
00
05
0E
14
02
FC
10
05
FE
FC
FB
F1
F7
FF
06
08
02
FC
FC
F1
00
07
EE
02
F3
F4
0C
EE
DE
DE
FF
FA
01
09
FF
03
FD
F5
04
FE
F2
EA
08
F8
F5
F5
01
07
F9
F3
FA
0C
08
03
09
11
00
01
DC
CC
E6
03
0C
00
FE
04
09
03
08
04
F7
03
F9
FD
07
0A
05
00
00
0A
0F
EF
00
FE
05
FC
F3
FB
05
0F
14
15
03
F7
FB
05
04
11
07
07
06
06
0D
05
0C
FC
F8
02
FD
F9
FC
FB
FF
05
06
FC
0E
08
0B
F6
F6
F9
FA
05
FF
03
03
F9
08
ED
08
05
F6
05
03
EE
09
0F
00
0A
12
04
FE
10
0C
0B
F5
02
FB
FC
FD
F8
F8
05
03
FE
EA
DF
0D
05
0F
FE
F8
F4
F7
0D
F6
F7
FE
F7
F5
02
F6
FB
00
FD
FD
09
0F
0E
0D
0C
03
08
06
FC
02
F7
FC
FC
05
FB
01
00
FE
02
05
01
04
FE
FE
02
DE
F1
ED
F9
02
F7
F9
F8
FD
FE
07
FF
FE
02
FC
F5
F6
03
FD
00
FA
FD
08
00
F6
F9
FA
F8
FA
FA
FA
00
F5
F7
FA
FF
F8
FD
FF
01
FF
FC
FA
06
03
FC
04
01
FF
F6
01
FF
00
FC
04
F5
07
01
FD
F5
FF
FC
08
F9
FF
F7
F9
F8
F5
FC
F8
01
F8
03
01
FC
FC
00
F4
F6
00
00
F7
F6
F5
FA
FB
FB
FD
00
00
FA
FB
F5
FD
FC
FE
F9
FC
F7
F9
FD
F6
F9
FC
F9
F9
FB
FB
FD
FA
01
FD
FC
FD
00
FA
02
FC
FA
F8
FE
01
FD
FC
F5
04
FB
FA
06
FA
07
01
FB
FF
00
F9
FB
F6
05
05
FB
F9
F8
07
FF
07
03
FD
FA
04
03
03
03
00
03
F6
FE
00
02
00
04
F9
01
F7
01
04
FE
03
F9
FB
02
04
F5
FB
F4
04
F9
00
F8
04
F5
FB
FA
FA
F9
F9
FB
FF
FC
FF
00
04
05
04
FD
FE
F7
FA
F5
FC
F7
02
01
02
F8
F6
FD
F5
F7
FA
FF
F8
F9
08
02
FF
FB
06
FB
FF
F8
FA
00
06
FB
FB
F8
00
FD
02
06
FF
FD
FC
F7
02
FF
02
08
F8
FC
FE
FA
FB
FE
00
02
FA
07
01
F7
F9
02
FA
F9
FE
FF
FC
FC
FB
02
01
F6
06
04
FA
FD
08
FF
05
04
FF
FD
FA
FD
02
E7
E9
FF
F3
F9
F9
09
FC
09
FC
EC
03
FB
08
06
17
17
07
0C
17
ED
EE
F2
0A
01
0B
08
01
04
F9
F1
EE
E1
F8
FE
FC
0C
0C
0A
01
01
08
F7
FC
FC
03
FC
EB
F6
03
10
FE
06
06
0B
F3
09
07
FC
07
0D
FE
E7
02
EB
DE
FA
FD
ED
FB
F7
03
FC
04
06
09
02
FC
07
EF
FC
06
02
FC
03
00
01
04
12
02
08
F5
FA
F4
F4
22
0B
FE
0E
06
00
0B
07
03
05
F8
FD
EA
02
0C
09
14
1C
1B
1E
10
17
F5
F2
09
F9
FB
FE
0A
03
0C
F5
F0
EE
F1
12
F9
00
05
1C
00
04
FC
FC
06
01
FB
FA
04
FC
F6
FE
09
FE
F6
FE
02
FC
FD
FE
F6
09
0E
08
00
09
0B
19
06
11
0C
F9
00
02
0B
0A
FA
06
0D
0F
F1
DA
ED
FF
08
FC
0D
FF
00
F4
07
08
FA
06
06
03
DC
EC
01
1D
00
07
03
11
05
F3
F8
E8
05
0B
F9
F7
F6
F3
09
1A
F8
F8
06
11
0B
FF
F4
FD
01
03
07
FC
F5
0A
FA
F6
04
05
08
10
0B
10
06
FD
FC
00
FC
F1
F9
FA
05
01
08
FB
09
FE
07
FA
FC
09
04
0A
F9
10
00
01
FF
10
FE
FF
FD
FE
05
F9
F3
FE
F8
02
00
FD
02
FC
02
FA
FE
04
FC
08
00
02
F4
EC
FA
FC
01
0E
FB
02
FF
06
02
FB
02
FE
00
FA
FC
0C
05
FE
FB
01
FF
01
FD
F9
04
03
02
03
15
09
00
02
FB
02
13
16
00
08
0B
05
02
FE
02
FB
03
0B
0D
FF
F9
02
0D
06
02
03
F9
01
12
12
FE
02
05
01
F2
F7
09
11
07
15
F9
03
F5
F7
F8
F9
FE
F8
01
01
0D
FF
12
03
FA
FB
FB
F2
ED
D5
F1
F2
02
14
FE
0D
0D
03
F3
F0
F6
F3
F9
03
F9
FE
02
12
05
F3
05
02
FC
F9
03
03
FB
02
F9
07
06
F9
FE
08
06
02
FD
05
02
07
0B
04
06
09
04
0A
F3
E2
FD
FD
F8
FC
0C
03
F8
02
08
FD
F0
F8
09
02
0B
04
09
00
0B
0B
FD
0E
00
F7
F7
06
FF
02
12
07
F7
F6
FC
EA
F0
FA
06
FA
02
0D
00
F0
F8
F6
00
01
F3
E7
F7
06
03
F7
FF
03
EF
FF
0C
17
FB
F2
F1
F6
FF
0A
0F
FA
01
02
05
04
02
08
0F
FB
11
1E
07
FA
F9
04
F8
FE
F8
F9
F8
06
FA
F8
FF
FB
01
FD
FA
01
FA
00
06
FB
05
05
05
FE
FD
07
02
00
03
FA
FD
F8
FA
F8
05
F8
04
05
00
04
FA
02
FD
02
03
FF
FA
05
05
FA
FE
F8
FB
06
02
00
03
07
00
02
F8
FE
FD
05
F9
F7
F7
F4
00
F8
03
05
FF
07
F7
00
06
01
FF
05
FC
00
01
FD
03
01
FE
00
F4
F6
FA
F9
F6
02
FE
FB
F8
04
FD
F9
00
FF
F8
01
FA
03
01
FA
03
FD
FB
03
01
03
F9
F9
02
00
01
04
FE
F6
FD
FC
00
F9
FA
02
F9
02
03
FF
FD
F8
FE
01
F8
FE
05
FA
FA
FB
05
FA
03
04
FB
03
F9
FE
FC
FF
FD
07
F7
F7
FC
00
01
00
01
05
05
FD
FE
04
FC
F7
FC
00
05
FD
F8
05
FD
03
03
F8
F8
FD
FB
02
02
FD
03
FB
FE
F7
01
00
07
F8
FF
05
FC
01
F5
FF
05
F8
FE
FC
00
00
FC
01
00
02
FF
F7
FC
03
05
FD
FC
FF
02
01
FA
01
00
FD
06
05
02
FC
FD
FF
F8
05
02
FC
FE
FB
06
05
FB
F9
03
FA
01
F8
00
04
FC
F9
FB
03
F9
F8
00
00
F7
F9
FF
FE
07
F8
F9
F8
FB
05
F5
FF
F9
01
FB
F8
F9
FC
01
01
FF
00
F8
F8
03
FF
FF
FB
FD
F8
03
04
FF
00
FF
FF
FB
00
07
FF
F7
FE
FB
04
F7
FD
F6
06
FA
FA
F7
03
02
05
F6
FC
01
F7
F5
FD
F8
FE
02
04
FB
FC
03
FE
03
FE
FA
F7
FC
02
F9
F6
FE
08
FC
FF
07
05
03
02
FE
03
F9
FE
F8
FE
F9
03
FA
F9
FB
03
FA
F7
FB
F9
05
FE
F6
F8
00
F9
FD
F8
00
FA
FD
FF
F8
01
F5
04
02
00
FA
F9
FD
01
02
FD
06
03
FE
F3
FB
F9
FC
FE
02
F9
F7
07
F8
F7
FB
05
FD
FA
FD
01
08
06
00
FE
FC
FF
03
FA
FE
F8
FD
FD
F8
FF
F6
F8
F8
FD
01
04
00
F6
03
FA
03
FC
F8
FA
F9
F7
F8
FE
FA
FF
06
02
FC
FF
FE
FB
05
FF
FA
FA
00
06
FF
FD
04
05
FD
F8
F8
FE
00
FF
FA
02
03
F9
F9
FC
FD
06
FC
FE
FC
FA
FD
01
02
FA
01
F9
03
03
F9
FB
FD
F8
04
03
04
FE
F6
F9
00
F8
FA
03
06
06
05
01
FF
F8
FF
06
00
F9
02
FD
F7
FB
FB
04
03
00
02
08
06
01
07
FF
F6
FC
FD
FC
04
F8
01
F4
F8
FB
F5
F4
03
F2
FE
F7
F4
F5
04
FF
EF
F8
08
05
02
FE
F7
FC
F8
FC
00
07
F6
F4
F7
09
FC
F7
F3
06
F5
00
F9
02
FB
F7
F9
F9
F9
FC
FD
01
FC
FD
F4
F2
FB
F7
00
FC
05
00
FD
F9
01
FE
09
FA
07
04
06
06
00
08
07
FE
04
F9
F9
08
F8
F6
02
01
FA
F9
F6
FD
FA
FD
F6
F8
06
01
FD
03
F6
FD
F7
F6
F7
02
F7
F4
04
00
F9
F8
04
F7
FA
F9
00
02
FF
F4
FD
FC
FA
F4
14
FD
FF
F9
12
FC
01
FE
07
04
02
01
0A
0B
FF
01
06
F6
00
09
09
FD
02
FF
EE
F2
00
01
EE
F9
00
FD
FA
FB
FE
F8
FB
FE
F7
F6
FB
FA
F6
F6
FB
FE
FF
00
F7
01
02
F7
FD
F7
FF
00
01
F6
F4
01
02
F8
02
FF
FB
F7
F5
07
F2
02
02
06
FA
FC
FE
01
F9
00
FA
03
01
F6
05
02
0A
FA
03
00
FF
FA
04
00
02
00
05
FB
FB
FF
FB
02
F3
02
01
0C
F7
F7
01
F7
FD
03
0B
FB
04
03
F7
08
08
FE
06
FA
FE
01
FC
00
F9
FA
FB
FB
05
FE
FA
F4
00
FA
F1
F8
01
FD
FD
FF
F5
04
F8
FC
FC
03
F8
F6
02
FC
FF
01
05
00
FD
FE
01
04
FF
FB
FD
FC
03
F6
01
F9
FE
02
05
FE
F8
FE
FA
01
F9
FC
F8
04
FC
F7
00
FC
00
00
F9
FE
07
F9
00
FF
FF
F7
03
04
F7
F6
FB
FA
FF
02
F7
02
FD
FF
04
FC
F6
FE
FA
05
04
FF
F6
F7
FC
06
FE
08
03
F9
FB
03
01
FF
FA
01
06
FE
F8
FB
FA
05
FE
F7
FF
FB
05
02
03
FE
FC
03
FF
F8
FA
05
06
FF
FA
F7
FF
FE
FF
00
FF
F6
F8
FD
FC
04
05
02
05
FA
F8
FF
04
04
FF
FE
03
F9
FB
FC
01
02
03
FA
01
00
FE
02
02
FB
FA
F6
FD
FA
FE
FF
03
04
FE
FE
FB
F8
00
03
01
F8
FD
F7
FD
04
FB
FE
F5
01
F9
01
FD
01
FF
F6
F6
00
F6
FA
05
00
F9
02
04
F9
FD
02
FA
FB
F7
02
FD
00
F5
F8
F9
02
01
F8
05
F7
03
04
FA
01
03
FD
00
F6
FB
F6
00
F6
FE
FF
0A
01
03
06
FD
04
03
FB
FA
FF
FB
04
F6
01
01
FD
FC
04
F9
03
F5
03
03
FD
FC
F5
FA
06
03
02
F8
04
F9
04
FD
03
FB
FD
F9
FF
08
FC
05
09
02
07
FC
F8
04
07
01
07
03
0D
EF
F7
FC
0F
F1
FF
03
11
02
F6
F3
FD
F6
FF
F7
01
03
04
FE
F4
FF
FC
F2
FF
0C
07
F0
FC
05
FF
F6
F4
FE
F6
04
01
05
FF
FF
06
F4
FB
F1
F7
03
0D
0A
01
FB
04
0B
00
F9
01
0B
00
12
04
FE
03
ED
F2
08
10
FF
F6
04
06
FD
F9
00
07
FB
03
08
06
01
F8
09
04
FB
00
05
FE
07
05
06
00
F6
00
F6
FF
F8
01
00
F8
03
0B
07
05
FD
04
06
FE
FC
05
0E
FA
00
06
02
00
0A
07
07
05
FA
06
08
05
06
14
FC
FE
F4
F5
FA
00
F0
01
05
05
02
02
FA
F1
F3
FD
FB
F1
FF
FF
02
00
06
FB
02
F5
FC
06
FA
F7
F9
03
09
FB
05
0C
05
04
07
10
FC
FE
09
07
00
02
09
05
F3
FA
0F
08
EA
F2
FC
FC
FA
FA
FF
FA
04
16
07
05
FB
07
F4
F4
01
0A
0D
04
04
F8
F4
F6
09
01
FD
F3
08
09
06
FE
02
03
FD
04
0B
0C
F2
05
0F
FC
F4
00
F0
04
FC
FF
F9
F9
F7
F4
01
FA
04
0A
04
FF
F8
FA
00
0A
EA
FC
F8
0C
0D
02
05
FE
02
FC
0A
07
FB
02
F9
0B
F0
FC
0D
FB
02
07
05
F4
0D
05
01
06
01
05
04
F9
02
FB
F5
F4
EF
00
FE
FB
FA
06
06
EF
00
02
FF
FB
05
01
09
FC
0A
0C
FD
F9
04
0A
0C
FB
05
FC
08
0C
ED
FB
0A
F2
04
0A
0B
FE
F6
0A
FB
FD
F6
F3
FE
03
F5
F7
F2
FD
04
07
04
02
04
08
F5
F4
01
FD
04
EE
08
07
01
F8
06
07
00
02
F8
F6
F4
FF
FB
FB
05
08
F5
F6
FC
F4
03
00
F6
04
02
05
00
09
F7
F7
0B
02
F7
F3
FE
FB
F8
F2
09
FD
03
FC
14
02
FA
F7
FB
F8
05
FF
07
FF
05
07
01
F0
05
07
00
EF
04
03
00
FC
04
00
07
FA
FF
06
0A
09
F8
09
02
05
FC
FC
FC
05
FE
FB
F5
02
F7
FA
FD
FA
02
07
FD
F1
FA
FF
F9
F7
FE
0B
0E
03
00
07
07
0F
01
07
04
F7
FB
FF
F7
03
06
F0
00
FE
02
FE
03
0A
FB
10
03
0B
0E
03
FE
FB
F1
FA
02
02
04
08
F5
F9
06
FB
03
0F
00
01
07
FE
F2
F2
FB
05
10
05
0E
00
F5
F9
0A
01
03
F8
F6
0C
FE
F4
FB
00
03
04
05
09
08
FF
05
FE
F3
03
FB
05
EA
06
FE
F9
04
FA
F8
EE
03
01
00
00
00
01
F9
04
E7
F8
02
0D
09
0C
04
10
01
FE
FE
0A
0D
0F
06
04
10
FC
F5
F0
FF
FE
F9
FB
FD
FD
07
FE
EF
EE
03
15
F5
06
04
09
07
01
09
09
06
05
FF
08
01
01
08
F9
E4
F0
F9
04
07
06
04
FF
08
0C
01
FD
FE
03
F7
FB
FE
F1
05
FE
03
FE
09
08
FF
F6
05
FC
EF
F5
01
16
EA
EF
03
F8
01
02
0B
FC
0D
FE
01
05
0A
11
FE
0B
0C
14
FD
0C
15
13
06
1F
14
07
05
0B
17
0E
F3
FB
FA
F7
F6
FD
07
FC
FA
F7
F2
F4
02
04
F2
EE
FF
16
F4
F6
10
17
02
03
00
FD
08
02
FD
FD
09
03
03
06
F8
0C
FB
01
0B
FF
03
17
FA
06
0B
1E
01
0D
0B
0B
0E
15
F7
FA
FD
F3
F3
03
02
05
FD
02
FC
F4
FC
0A
F4
F8
01
01
FF
F9
FE
00
F7
02
FD
EF
FD
EE
07
03
FD
FF
FC
F6
03
F2
FB
FC
02
01
FE
05
FD
FE
F4
03
EC
EE
06
09
11
0B
0F
06
01
06
12
F8
E0
F9
09
F9
E1
FB
ED
03
F8
FE
F9
01
FA
F7
02
FE
FD
FB
FD
FC
05
F8
F5
FE
04
FE
F8
05
03
FA
00
F8
FF
FD
F9
02
02
FB
FE
FB
FA
F9
01
FB
F9
F5
05
FD
F6
FA
FF
00
00
FD
00
FD
FD
FE
FD
FF
01
FC
FB
FA
FF
02
FA
F5
FA
07
F7
00
06
FC
FA
F7
01
FA
FE
01
01
F9
FD
04
FF
03
FA
FA
F9
F6
05
FE
01
FD
FA
F6
FA
01
02
04
03
01
FF
F8
F9
04
03
FD
01
FC
F7
FF
FB
00
FF
FD
00
FF
FE
FE
FC
F6
00
FB
05
FB
FA
01
FD
04
FA
F9
FE
FC
F8
03
F9
FD
00
FF
FB
FB
FB
FC
F9
02
FE
FD
FD
02
F7
F9
00
FA
04
03
F9
00
F8
02
F9
03
F8
06
FB
F8
02
FD
FD
02
03
FB
02
FD
02
FB
01
F7
04
FA
01
F6
F7
F9
FD
FA
FA
FE
F5
F6
F5
FE
FA
FC
01
03
F5
FC
FB
FD
01
FC
F6
00
F7
FD
F6
F5
02
00
FE
02
08
FF
FF
01
FA
04
FD
04
FD
05
FA
FB
F7
FB
06
04
FA
03
F9
00
FB
03
06
01
F9
F8
FF
03
FE
F7
FA
F8
00
FE
00
03
F9
04
03
F8
FB
FA
F6
00
FB
04
FA
03
F9
FF
FB
04
00
F8
F9
0C
FE
07
09
FF
0C
FE
0A
02
11
FF
05
04
0E
13
FB
EF
03
FD
F6
12
0B
02
F7
10
F8
06
05
FB
09
FB
0A
18
FC
F7
00
0A
04
00
F2
F5
00
FF
FE
1A
F4
F8
01
EF
00
01
FC
10
08
02
04
0A
03
0A
01
06
FF
F6
00
04
08
0E
02
FA
0C
FF
0A
F8
FB
07
13
12
0D
09
13
08
04
00
0C
08
0A
05
0F
10
00
03
05
FF
00
F3
FD
F7
09
0E
11
00
10
07
00
03
0A
13
08
01
0B
F1
F9
FD
FE
02
F4
02
F7
FC
08
08
01
FE
F7
F9
F8
F5
FA
E8
F9
06
F9
13
ED
0E
F5
04
FA
F0
FB
0D
01
F7
F9
00
00
FF
FB
0D
0B
0C
04
01
FE
F7
F3
06
F7
04
FC
07
03
FB
03
FA
FA
0A
06
05
06
06
01
08
03
FA
F3
06
02
FD
02
0B
05
00
F8
F9
11
F6
ED
11
07
FD
03
F5
0B
04
0F
05
0D
0C
19
04
FB
FC
FC
06
06
07
F3
F9
0B
F0
E2
DF
01
FD
0C
0A
03
E9
F5
10
04
FE
DE
E8
F8
FF
F6
03
FB
F9
F8
0B
01
03
F2
F9
F5
FD
00
06
02
FB
02
FC
FE
01
03
02
FE
02
1C
07
03
01
01
FE
0D
07
03
05
F8
09
08
0F
04
09
06
04
F9
07
0A
0F
F5
FA
06
11
FE
01
EC
FC
ED
FA
FD
FF
F8
F3
F0
FD
05
04
FB
0F
14
03
FB
06
08
F5
03
05
02
06
07
05
05
F7
01
03
FD
F4
F1
F3
02
05
08
F6
00
F8
06
FD
01
FE
01
02
1A
0A
05
00
DC
F1
0B
15
02
07
12
11
09
03
04
0B
0A
00
FD
0F
07
FE
01
04
FE
F7
FE
FF
08
0B
01
05
F7
06
F3
F9
E8
09
0E
FF
05
08
03
FC
05
0A
FF
F4
0A
FE
06
04
0E
02
FB
FF
09
F5
F9
F1
01
F9
06
0F
0D
0C
FE
FD
F1
DE
EF
FE
00
02
04
08
F8
F5
FA
F5
F9
FB
FB
03
05
FF
F6
FF
02
01
F8
FC
08
F8
05
F9
07
04
0D
02
02
08
08
05
10
08
F8
F8
04
F6
F6
03
00
07
F7
FC
17
03
E3
F3
03
0C
01
05
FE
FB
F8
10
FD
FF
00
05
F9
FC
FC
0F
10
12
01
F9
FF
F4
00
0A
05
F0
FF
08
F9
EB
F8
07
F8
0F
FF
FE
FB
00
0E
F5
F8
F3
EC
0C
FD
FD
F4
0A
00
F8
01
08
0B
0A
08
F6
F9
05
04
03
E7
F7
04
0E
FB
FE
FE
F8
FD
0A
09
03
08
08
F7
FF
FD
06
0B
04
EB
F7
0D
21
FB
F4
F7
F7
FF
FD
F7
F8
F7
FA
FE
FB
07
00
02
F9
FD
13
13
14
08
0A
00
FC
0C
FD
02
FF
ED
FC
FD
FF
01
07
F4
E5
F8
F7
F3
E3
01
0A
07
00
0C
0C
06
F2
E5
F8
FF
FD
10
0B
FE
F4
F3
05
05
0D
F4
08
1D
28
02
07
07
00
08
0A
FA
F2
07
06
F5
F4
F1
F2
02
FA
FB
03
F7
FB
FE
07
F7
E6
00
0B
0C
13
0A
12
05
04
06
09
0A
FB
E5
FB
02
08
0C
03
04
01
07
01
00
EF
EB
FB
FC
03
00
0E
11
04
FC
EE
01
F9
FA
FB
04
12
01
05
EF
E8
F4
FD
F9
F6
02
FB
FC
ED
01
08
06
FF
F6
09
0C
03
03
03
FF
07
09
0A
F9
07
0A
10
F5
F0
10
09
01
04
13
FA
01
FE
0F
07
00
01
06
16
15
0B
DB
E7
FB
FC
F8
FF
04
F2
0A
06
03
FF
11
15
09
F7
F6
00
F6
08
F6
FF
F5
FD
FB
F8
F7
E9
FA
1C
10
03
FF
F9
F8
F3
F7
F7
F2
FD
F6
01
FD
FE
F1
EB
FD
06
FF
08
05
08
07
01
FB
FD
F8
06
0C
08
FB
F7
03
F9
00
FF
F8
05
06
FA
00
02
05
FB
00
FB
04
F8
FD
00
00
01
06
FA
04
F9
FA
F9
01
04
FE
FC
03
FF
FB
00
F7
FA
03
F9
F8
04
F9
FB
FE
07
F5
FE
FA
05
02
03
FC
02
07
04
F9
F9
FD
FF
F4
FD
FA
05
FD
00
F4
FB
FD
F4
02
F8
04
FB
F7
FF
FE
FD
04
F8
03
02
FD
F4
00
F8
FD
FE
06
FB
FE
F4
F9
FE
03
FE
01
F4
03
F7
03
FF
FE
03
F9
F6
00
F5
FB
FF
F9
FA
FF
FD
06
03
03
02
00
01
07
F4
F6
FA
F7
FA
00
00
FD
FA
FB
01
FE
FB
05
00
03
F8
F8
FF
03
F8
00
FB
06
00
FD
FA
FF
FB
F7
03
F8
F9
F6
FE
FC
FD
04
FD
FD
00
FE
FD
07
01
F8
FE
03
F9
F9
FB
F9
02
02
01
FB
02
FC
FA
00
F7
F9
01
03
FC
FC
FC
03
01
00
02
03
06
FC
00
04
02
FA
F6
02
01
F6
FB
F7
FE
F9
FB
00
F7
00
F9
F9
FB
01
00
F5
FE
FC
02
05
06
FB
08
03
F7
F9
00
04
FD
00
01
F9
02
03
FC
F9
02
01
FE
F8
FA
02
03
FF
F6
01
F6
00
FF
FA
F5
05
FC
04
03
03
FB
09
FF
05
11
09
FD
03
0D
0A
02
01
F7
FA
FB
06
06
05
01
FF
FA
FA
04
05
04
06
FD
05
F5
FC
F6
0C
F9
F5
FE
08
0A
FD
F6
00
06
00
03
01
FF
09
0D
03
01
03
0C
08
14
08
FD
16
11
01
F9
FC
F1
FC
EF
FB
00
08
05
DC
FB
03
03
F6
FB
FC
F6
0B
FD
F7
FB
08
01
05
F5
08
04
01
02
09
0F
06
F4
FC
0E
FE
F7
F5
06
10
11
FD
0C
FD
F5
FD
F6
FD
FE
F9
F7
FA
F8
08
02
F5
05
05
FA
08
FD
E3
FC
07
00
ED
03
06
FF
0C
04
F7
F1
FA
F5
FC
FB
F0
0B
05
EC
22
19
04
FC
FB
08
14
1A
05
0B
02
18
14
0D
05
F3
F9
F7
FD
FF
08
06
FC
FA
08
0C
08
06
07
07
00
07
FB
F2
F5
04
13
00
FE
FC
0B
FC
FB
EC
04
08
F5
E9
FF
FE
09
12
0A
08
02
10
EA
FB
F8
08
F3
F5
FF
F7
07
FE
08
FB
FF
FD
06
19
F1
FD
00
13
FE
FA
F8
F2
0C
01
FB
F6
FE
13
0C
12
09
08
FE
15
03
03
0C
00
F3
F8
05
F9
F4
04
0E
09
F7
08
F9
F2
FF
FD
00
FF
02
F9
F4
01