0C
0E
03
F9
FE
08
03
FC
02
FB
06
FF
FF
03
08
F9
0B
FC
02
FB
06
01
04
06
02
02
08
04
F8
FD
00
FC
0E
FC
0D
FF
09
0A
02
09
F8
02
0F
FF
07
05
FE
05
F7
09
0B
09
FE
02
FD
03
08
00
01
0A
08
FD
FD
05
FD
F7
07
FD
0A
07
02
06
FF
03
FE
FC
0C
FB
FB
F9
01
FD
F5
05
F6
FA
01
0B
F7
03
F3
0D
02
08
F3
05
0A
0C
F8
01
00
F5
09
09
F4
0C
0A
FD
FC
F8
F8
09
08
0A
00
07
0B
0C
03
02