F6
F7
08
07
F7
F7
FD
06
0C
04
06
F6
F5
FC
FD
0A
08
F9
F5
07
07
00
F6
FB
F8
F2
F9
F7
0A
F5
FB
01
FA
07
0C
F9
FF
04
0B
F7
03
F8
FF
08
01
F1
FD
FB
04
FE
04
09
F9
03
F5
FE
FF
FA
F6
03
F8
F5
F9
07
01
F3
00
05
FA
F9
08
00
F7
F8
F9
F5
F2
04
F5
0B
F4
F2
FE
FA
0B
FE
F5
FD
FC
F7
09
05
FA
F6
04
00
01
F5
01
02
F8
06
FC
02
08
F6
F4
F6
09
04
FC
09
06
00
F7
F7
F5
FE
F7
07
12
11
F4
03
0B
E5
04
06
0D
F8
0A
F4
07
04
F7
FB
FA
FC
0A
07
0B
F8
0B
08
04
0F
F3
05
01
FD
FB
0D
08
F3
00
FF
03
05
E9
EC
F6
19
18
F9
01
07
08
F8
FD
F8
FC
0B
F9
FE
04
06
1A
FA
09
F9
0A
F5
06
0B
F9
05
FE
FD
FC
13
F9
14
F0
EB
0D
0B
F8
F1
0A
03
08
0A
FB
FF
F8
0C
05
0F
0D
0A
0F
0D
05
F7
F3
11
FB
06
1E
F5
F4
E8
FC
F8
07
00
0E
F6
06
F6
08
03
00
EA
F4
01
F8
FC
0A
14
0C
0A
FD
FB
FB
0B
06
07
00
F9
F9
03
02
E8
EF
05
0B
03
09
F4
FE
FD
FA
05
0C
F3
0A
0A
02
00
F1
FF
0E
F5
04
E4
08
0F
FB
0E
09
F2
FB
09
17
F3
F9
F4
F4
FF
0D
FC
00
FE
EA
F1
0D
F2
FF
EE
15
0E
02
09
0A
FA
FC
E9
02
0D
F2
F3
05
10
F8
F7
F9
FE
0C
F6
0D
0B
F4
06
F6
EE
00
F4
08
FB
D6
02
0E
0A
FC
01
01
14
FE
E9
0D
F8
0A
09
0B
FD
FF
F4
01
08
0E
03
09
14
0C
06
07
03
FF
FF
F2
F5
F6
08
04
07
F1
F9
02
0B
06
FD
F5
FB
F9
FD
07
03
03
00
FB
FA
FE
0A
FD
0A
FB
F2
FA
F9
F1
11
02
09
07
ED
FB
F2
03
08
03
FC
0B
0A
05
FF
F4
FF
05
FA
06
F8
FB
FD
EE
FF
05
F5
FF
FC
F1
F9
05
F4
FC
FC
05
F4
F6
02
08
09
FE
01
06
F5
09
FB
05
09
F8
01
F5
F1
06
03
F1
F2
F4
F8
0A
F6
0B
01
0D
F3
02
0D
F6
FF
FE
10
F8
0B
FF
F9
F4
FA
F6
09
06
F6
F6
02
FD
02
02
FA
FD
00
F4
07
1A
F5
0B
0D
F4
02
FB
08
FB
FE
F9
F9
07
F8
00
09
08
05
EF
F7
0D
14
06
0C
10
11
F7
F1
F7
F3
0C
16
10
F2
10
FF
06
14
03
09
0E
F5
06
F5
FB
E5
F6
0C
FB
02
FB
08
FD
FC
0C
0C
03
0D
00
02
00
FF
08
FB
0E
F3
12
11
06
FC
06
04
FE
10
E6
ED
06
01
FF
FC
0E
09
FE
FE
F6
F7
0A
02
E3
0A
0F
FA
D7
F3
07
08
F1
05
0A
02
08
FE
F6
FD
FA
04
03
07
01
13
F5
19
FC
07
17
0C
01
F2
0E
0A
F4
FA
0B
F4
00
FC
FF
07
FC
03
0E
02
FB
03
EF
F6
09
EE
0E
F6
00
F0
04
FF
07
F9
02
0C
00
0C
0A
F6
07
06
06
FA
06
F6
0F
10
F7
07
05
0C
01
0B
FB
F7
FD
00
F8
FB
FC
12
0A
EF
0B
FF
06
FB
FE
F4
0D
11
01
01
0D
F5
FA
12
F2
F7
00
FC
03
FB
11
05
04
0D
FA
05
08
06
01
12
07
F6
12
08
F6
06
08
0A
FD
10
F3
F7
03
F4
FF
0E
0B
FA
0A
F9
F3
01
08
F5
F4
E6
03
03
FB
0A
F6
00
01
0A
0E
FF
04
06
03
F9
08
07
F7
F9
08
18
FC
06
08
F4
14
0C
FF
FE
0C
0D
06
01
03
F6
05
FD
F4
0D
F9
F8
0E
1B
F2
0D
D8
29
FE
FA
12
FD
0C
EA
0A
F3
FD
1D
0A
FB
F0
EB
F7
FF
FC
F5
F7
F9
04
FC
07
05
F7
00
01
0D
10
FC
07
19
EB
FA
04
0A
F1
03
02
01
05
D5
0C
0E
07
10
E7
FA
05
08
F5
09
09
08
0C
F4
F9
F5
04
F8
FA
03
07
FE
07
2A
00
04
FF
04
FE
03
F4
15
07
FF
EC
E0
02
FD
F7
02
FC
07
05
FF
F3
09
FC
FB
FE
08
09
F7
00
00
F7
06
F3
F6
04
F9
F6
04
FD
FD
0A
FE
FB
F6
02
05
F5
0C
01
F7
00
F7
F8
0A
FC
07
F5
04
FC
01
F6
F6
F8
FC
FC
0A
F7
03
06
02
F5
02
0A
02
04
02
0A
FB
F4
FF
02
07
FE
F4
F6
FF
02
FA
0A
FB
01
03
F8
0B
F8
03
F7
FB
FD
08
F8
06
FA
08
F1
02
04
FB
FA
08
F9
F9
02
09
FA
F5
F8
05
0A
F5
FE
F5
02
FB
00
FC
00
05
F9
F4
FB
04
FE
08
01
F3
F1
0B
FC
F5
FB
01
FE
FE
F9
08
F3
01
FE
00
05
FA
05
FC
00
05
04
FA
07
F1
05
03
05
00
FC
F7
FE
04
01
02
FB
FE
FB
07
F7
FA
F8
FB
00
FF
01
FD
01
F4
02
F5
0D
0E
FA
FE
08
F9
FC
03
F9
F9
04
F7
02
01
F4
FC
FB
F1
F7
00
FB
F4
04
FF
06
F9
FF
06
F3
FA
F5
02
FC
FA
F7
F4
08
F7
07
F2
01
F8
06
F8
F3
04
01
FF
FF
FA
F7
03
F8
F0
07
04
FA
01
F9
F9
07
04
0B
F3
FB
F4
05
04
0D
FB
0E
FC
09
04
1F
F7
FD
F9
00
01
10
F6
0B
FF
0B
09
04
10
06
FC
09
FF
07
05
0C
02
F8
F0
F1
0F
E4
00
0E
F6
03
06
F3
17
F9
F2
F3
FE
F8
F8
09
F7
08
01
05
FC
F3
03
F8
FC
02
14
0C
FC
03
FC
FD
14
FB
F7
F8
FB
0E
FF
0D
F8
12
11
FC
0E
08
06
08
FD
11
08
0A
F8
F8
EF
01
F8
F6
04
F8
F6
FB
F4
F6
07
FD
EF
E9
0F
F4
1E
17
19
0E
FC
F1
FF
F7
F7
FE
02
08
0B
F7
FD
08
01
08
FB
07
F9
FD
06
08
04
F8
F6
07
08
09
F5
FF
F7
F7
0A
FE
FB
07
FE
F5
0A
FB
F2
08
FD
FC
F9
08
F1
F6
F8
FC
00
00
F4
08
F5
03
01
FC
F7
F7
F5
FF
05
F4
FD
F5
F8
F8
FF
FD
09
F9
F5
FE
FA
04
00
F1
F2
04
F7
FA
F5
F7
F3
05
F8
00
F6
F7
06
09
06
FA
F4
F7
F4
FB
F5
09
F1
F5
F8
00
F4
F8
09
0C
FB
FF
05
05
06
02
F3
08
F8
FA
FA
03
04
07
F4
F2
06
0B
0B
FC
05
F3
F4
FF
02
FF
FF
05
FA
14
09
F8
02
FA
04
03
F6
08
FE
FF
FF
FF
FB
EC
F9
F3
07
14
1B
FC
04
F7
F5
0B
10
05
00
FA
03
F3
F5
06
F9
FB
FD
0A
F6
FC
FB
04
F4
0D
F8
F8
0B
09
0D
F3
E9
F7
16
02
E3
FC
0A
F1
F5
F6
FF
08
E9
05
0B
F7
00
EA
05
EF
10
F9
FE
04
FA
FE
07
25
0E
01
09
01
07
F2
F8
0C
FC
0B
07
E7
0C
19
08
FC
EC
24
F9
DE
08
08
F8
FC
1C
00
03
05
E4
FD
F4
02
0B
F7
F3
14
F0
0B
FD
EC
F8
F7
00
FB
04
0F
FE
05
11
01
03
04
09
FF
FD
FB
E0
03
FC
0D
F6
0D
05
FD
FD
FB
F6
01
0C
0A
F7
F7
06
E5
FB
FE
F8
00
FF
00
0F
1B
0F
09
06
01
0B
1C
F8
EA
0D
FA
EE
0A
00
FF
E2
F6
0D
FE
EE
F8
FB
FB
07
0F
FF
04
F5
07
FB
ED
09
FE
00
0F
0E
00
EA
0A
15
07
08
FF
F2
06
D9
03
F0
FB
F1
FF
FB
F5
FF
07
01
01
DD
06
18
FD
F5
00
16
01
02
F6
04
F0
F6
FB
F5
06
09
FF
05
FA
FC
F7
FD
02
01
01
FB
04
FF
FC
F4
FE
F6
07
F6
0A
09
F9
F2
F4
05
FA
FE
F5
FB
F6
FF
FE
FD
FD
04
F9
FE
FD
FA
00
FD
FF
02
FE
03
F6
01
01
01
F9
FE
F4
01
F8
07
03
FA
FB
0A
F8
01
FC
08
F9
FA
F5
02
F5
F3
02
F3
01
F2
03
F4
00
01
FD
06
F8
03
FD
02
FA
FD
F7
03
01
08
F6
FB
09
F7
FB
08
FF
FD
05
F7
FB
FC
FF
02
F4
FB
FD
07
05
03
F8
F5
F7
FA
09
03
F9
FE
F8
02
02
FE
FD
F7
06
06
FB
F9
00
01
00
04
04
F5
F6
F5
FE
05
07
F6
F9
0C
F8
FE
F1
06
F5
01
04
F6
F9
00
0B
09
FE
F8
08
F8
F7
F6
F9
F7
F7
FE
00
06
F7
F9
F2
04
FB
F3
00
0A
05
FF
07
F2
09
FA
F1
05
FE
F9
06
FE
F3
FC
FE
F7
05
01
0A
00
02
F0
F1
FF
07
07
01
0C
03
FA
0A
F4
FD
01
FC
09
FB
F9
FD
F8
06
F1
F9
03
01
02
0E
F9
03
F5
02
FC
FB
05
F7
FB
05
06
07
FD
06
06
FA
FC
F4
F9
FC
FA
FD
F7
FB
F4
F4
01
F8
F6
03
04
FD
FD
FD
FF
FF
FA
00
F9
FA
F6
FA
FD
02
F5
01
03
04
F1
FE
06
04
FB
00
F2
FA
FA
FB
F8
FE
FA
0A
FF
F3
F8
FB
FD
F3
F5
F4
FC
FF
02
F1
05
F6
F6
11
FD
F7
00
FE
FB
F7
02
FC
F7
08
02
04
FC
F7
F3
F7
FF
0A
FD
00
FE
F5
FD
01
EC
0A
F4
F5
F6
FC
FA
F9
FB
F6
0A
FC
F3
F2
FE
FE
04
F7
07
F5
FE
00
09
FF
FC
F5
05
F9
FA
F5
F6
07
FB
FE
04
04
EC
08
FC
FE
FA
00
FD
F9
F4
06
07
F6
0C
15
FE
FF
10
F9
FC
00
FE
F4
0B
F9
10
04
F8
03
0C
FD
FB
08
F6
F6
F5
08
ED
F9
07
FE
FB
03
FE
02
02
0D
FD
0D
06
F3
0F
FE
FC
EC
FA
03
06
FA
03
FE
09
F6
10
05
EF
09
F4
FB
F7
07
FB
F9
16
0F
03
00
FD
11
0A
FA
02
05
E0
13
07
04
02
F8
00
06
07
F4
11
FC
0E
FD
FB
00
F9
10
08
F9
04
11
02
FF
08
FE
DD
E7
04
07
F7
F0
05
FE
EE
10
0A
FD
FD
FA
09
FA
F8
01
0B
12
14
05
F4
0C
06
07
F3
05
01
DD
09
FD
F7
F5
FC
F3
F7
F0
02
F8
0A
FF
0E
F4
FD
00
02
FD
10
05
FB
08
13
01
FA
0B
EC
F2
11
FB
F2
F6
E8
00
FA
0D
F8
F9
FD
13
FB
04
03
F3
09
FB
07
08
07
FD
F9
09
F1
07
08
F4
0C
04
08
FF
FB
07
00
F7
FC
EE
F9
FB
0B
06
F8
04
FA
F1
F9
FC
11
0A
0E
F9
0A
F8
F6
0C
10
0A
F3
08
0B
02
FE
0A
F0
06
02
F5
05
F1
12
F8
08
FD
F7
F7
0A
08
ED
09
09
FA
FF
FF
07
06
FF
01
F5
FA
F7
FE
08
06
01
03
00
F7
F9
05
F5
F2
FD
03
06
FD
0B
0A
05
FB
08
F9
01
F5
FE
F2
F4
00
F2
F3
0A
01
F3
05
F4
07
F6
04
FC
F5
08
F6
F8
F6
F9
05
F7
05
FA
F7
03
FC
F4
0A
08
FD
04
FD
F0
08
F6
06
F3
F9
F1
FB
00
02
00
F6
ED
02
F4
FE
0A
FD
FC
05
F4
04
04
08
01
05
F9
F7
FA
F5
03
F4
03
FB
07
FF
0C
02
FF
F8
F4
04
FF
F9
07
06
03
07
F7
08
06
F7
F8
01
F4
FD
FB
F9
02
10
08
FE
17
F5
01
F5
07
FD
F7
04
0E
F4
FE
FB
03
ED
08
ED
00
07
F8
06
FB
FA
F2
F5
03
F4
04
00
F4
08
03
01
F9
02
1A
07
05
F3
07
10
FE
EA
FB
FF
07
07
F2
0A
EA
F1
0E
01
08
00
FE
09
EF
FE
05
08
FC
F7
09
E9
0B
FE
02
F9
05
03
0B
FE
02
00
FA
FE
0E
0A
EF
F5
ED
F1
F7
04
F8
12
05
ED
F9
EC
EC
F0
19
05
0E
07
12
01
04
FA
FD
05
FA
08
FD
02
FC
FE
0C
0B
FB
F5
0E
F8
FE
02
07
09
FA
04
00
F4
F5
01
07
FE
F3
0B
0D
F4
0C
F7
0F
0C
0D
01
FF
05
06
FE
FE
F4
F9
F8
FE
FC
02
EB
EE
F0
FC
1C
F6
EC
F6
02
FF
EC
FD
0B
0A
08
0E
FF
01
0A
FA
00
E6
0D
FB
E6
FD
08
02
F8
06
01
F9
07
04
FA
15
F2
EE
16
F8
1A
08
03
0B
E5
0B
13
09
FB
FC
06
F8
09
0B
14
02
0A
01
F7
0C
03
0D
12
0F
FD
E9
F5
04
F7
E7
FF
FC
0D
FB
0F
0A
07
08
F6
FA
08
09
00
0E
0B
F8
00
F1
F6
04
06
F5
00
F8
F6
F8
0B
09
04
07
FB
F1
04
F4
FF
F8
F7
F5
08
08
F8
FF
08
F4
FB
01
FB
01
00
FF
FB
FA
01
F7
00
F9
FC
FD
FB
F3
06
FD
F7
01
06
FB
06
01
F2
F9
0A
0C
FA
FE
F5
01
FA
FC
F7
08
07
00
05
F8
04
FD
F6
04
00
FB
F1
F0
F4
F4
0B
06
FF
F6
08
00
0B
F9
FC
F4
FD
05
FF
08
FB
06
F6
FA
07
FC
F1
02
F8
FA
F9
F4
F5
03
06
03
05
F4
06
07
01
FD
02
F0
08
F5
F3
09
F9
05
F8
F7
EB
02
FE
0F
F5
01
03
F5
F4
00
0F
F9
06
09
02
F9
0C
FA
09
04
FA
F3
0A
08
FF
F7
FD
0E
05
0F
15
FA
03
EA
00
0C
02
0D
FE
F2
F9
05
0D
13
F8
0E
02
E9
0F
02
02
05
0A
0B
F6
ED
05
0A
13
07
09
06
05
08
E8
F6
EF
F5
02
0B
ED
0E
F8
F4
1B
10
04
FD
10
00
0A
00
F8
04
0B
05
0B
FF
14
FF
10
06
26
02
0A
28
F2
FA
02
07
01
14
F6
05
F5
05
FC
01
05
04
0F
00
0C
06
EE
01
FF
14
04
03
F7
F6
FA
FE
18
00
FA
05
04
0A
10
09
12
08
FA
09
F8
F3
13
07
07
01
08
04
02
05
03
EF
08
0A
F1
0C
F8
07
0D
0A
0B
ED
F6
FF
F3
FC
F0
0E
0D
02
07
0D
0A
F5
05
01
0A
0F
F2
08
F4
12
FE
01
0C
01
04
01
0E
02
05
07
11
F2
1A
0C
06
FC
0E
14
01
0B
10
02
09
F8
FB
09
09
0D
09
06
FA
F4
F6
F7
ED
09
09
F0
EA
17
01
0C
F8
02
FF
F2
06
FF
06
FF
04
0B
FC
12
04
0D
FD
08
02
0D
00
FB
F5
FD
00
F9
00
08
02
06
06
08
FE
FA
02
07
F8
F6
F6
04
FB
FB
06
06
02
08
FA
FD
0A
09
02
FD
F3
F8
08
FF
02
F3
00
FC
06
07
0C
FB
03
00
F6
F8
F5
F3
F3
FA
F9
FA
F6
FE
05
F8
01
FF
FD
F9
F7
08
04
08
FD
FE
FA
F7
FE
07
06
F9
F5
06
07
F6
F6
04
FC
0B
FF
F8
07
F6
03
03
01
F7
FA
FC
FE
F9
02
F5
FF
06
F9
01
FE
F8
01
05
FD
FA
F1
03
0A
FF
08
03
F9
06
FF
F7
F2
F6
FE
FB
02
02
06
F7
FF
02
F7
FF
F4
07
FA
08
F7
13
F0
FC
02
0C
03
01
06
FD
F5
F6
FF
07
F7
F9
0B
0A
FE
03
F1
F7
00
FF
02
05
F9
12
FB
01
E9
FA
FF
FC
FE
13
0C
0C
04
F4
0D
FA
05
04
04
FC
F6
02
F2
09
02
03
FE
10
F9
02
0A
F5
00
FE
00
F5
04
08
F5
05
09
0B
FC
18
0D
05
FF
0A
F8
02
F7
FB
FD
10
0A
15
07
FD
06
ED
FC
09
0B
ED
F9
F3
FB
0D
0F
FD
08
F6
FF
03
05
F3
F1
0B
F7
0E
FE
F9
12
00
ED
06
FB
FB
F4
08
FE
F7
0A
00
10
F9
F3
00
F8
04
FD
EC
FC
FF
02
00
F9
0F
02
02
0A
F4
0A
00
0A
F7
FF
FD
0C
01
EB
EC
04
04
07
05
11
0A
0A
FF
03
ED
06
F7
FB
05
01
0F
0D
F8
F9
F4
FC
01
0D
FE
02
0B
03
F8
0D
F9
F7
06
F0
ED
09
F9
04
00
00
FC
0D
15
09
0F
FF
09
05
16
F8
03
05
04
FF
0A
F2
0B
F4
01
F2
05
F6
F8
F7
03
F9
EB
0C
02
F4
F1
03
0A
00
E3
04
0D
09
0C
01
0B
F4
F5
0D
FE
FB
06
E6
FF
00
FE
09
FB
FB
0A
F7
F6
F5
11
FA
08
FC
FD
05
00
01
FE
0A
0F
F8
0C
01
0F
E8
E5
0B
FC
01
F6
02
02
03
F4
EE
06
07
F7
F9
F8
09
FC
01
E5
09
DD
F2
02
F8
13
07
07
ED
FD
0F
01
FA
09
F9
07
F7
F6
02
EA
0F
F9
07
11
E5
FD
08
04
0F
15
F6
03
FF
F7
FD
F5
F2
FB
10
02
FA
00
01
05
F4
F3
ED
0A
FA
F3
FF
F2
FE
02
09
F7
03
08
04
03
01
0C
06
08
04
0B
05
E5
08
0E
FC
FA
00
02
FB
09
FD
09
0B
F9
07
F4
E7
03
F6
05
0E
FD
FC
05
FF
F6
F8
0C
FC
10
FC
0E
04
F6
01
F1
09
F5
05
0A
EA
ED
0C
0F
10
F9
0A
11
0B
F1
04
F4
F9
FF
FD
F4
01
01
FE
EF
F5
FF
0A
17
00
0C
07
00
02
EC
0E
04
F9
FD
FD
02
F8
F9
F7
F1
0A
F8
F6
04
04
0E
09
03
0B
F7
0C
FE
F1
17
0C
08
0A
12
00
FA
FA
E6
FE
EB
03
11
F6
04
0B
04
F3
05
08
10
FC
F6
08
03
FF
05
03
01
F5
FC
FE
F7
F8
F4
FE
F8
F8
F6
05
0B
F6
01
FF
F4
00
06
FD
FC
04
FF
02
FB
FF
F9
F7
F3
F7
FE
FD
07
02
F8
F4
05
02
06
00
F5
07
FF
F5
0A
04
F1
F5
05
07
F7
FA
09
F5
01
F4
F6
05
F7
0A
F8
00
FD
07
06
F9
03
F9
06
F9
F6
F8
05
F8
FC
0B
FB
FB
F8
F8
0A
FA
FB
05
F9
05
FC
F6
04
FD
0B
03
F2
FB
01
F9
04
F3
03
F3
08
FB
05
FB
F1
F6
FF
F8
0C
FB
08
05
FB
01
FC
F9
FA
F7
04
FD
03
FF
00
FD
F8
06
01
FE
00
09
04
01
FE
F6
15
E9
04
0D
FC
FB
F6
F4
F9
00
F7
0C
F3
08
FB
00
F2
F7
01
F3
F4
0E
16
00
02
FE
0D
0B
EE
EB
FC
09
E7
06
1C
0D
0A
ED
F5
02
DC
EB
0C
00
0F
02
F7
FB
F6
04
09
05
07
04
11
FC
05
FC
0F
16
FB
06
FF
03
08
08
0B
09
F8
01
EC
07
FD
F2
03
FB
F5
2C
02
F0
0F
0E
FF
E9
FA
0A
1F
F8
16
04
03
F6
F6
F8
F5
03
F4
F5
F6
02
FD
0A
09
03
F6
F5
F1
00
03
FD
10
FB
09
F9
FD
00
FE
FF
01
08
FC
01
FE
FD
FF
FD
00
12
07
FC
F6
05
F8
F1
F2
04
0F
0F
0D
10
12
08
EA
F6
09
DA
13
07
EE
FD
07
04
0F
F7
FB
FD
0A
FF
0A
14
1E
06
02
08
E8
F8
03
12
12
FD
12
FB
F9
ED
F2
00
F3
F3
ED
E7
14
00
F6
0C
01
00
FB
FC
0B
F9
0E
F8
03
FC
F1
0B
02
F9
0F
1B
17
13
0C
08
09
03
F4
06
01
F4
14
FD
13
FC
0B
07
F6
00
F8
06
01
FE
08
FA
F5
00
03
FB
00
09
02
FF
0B
05
FC
04
05
00
FC
03
03
F9
05
0E
08
F9
FC
FD
02
03
FD
0B
FB
0B
0B
F9
FF
EE
05
EE
F9
05
07
18
0E
01
F8
FE
0F
F2
FF
0C
01
0A
F5
FD
FF
02
F9
05
F1
03
F3
03
0C
FC
0F
EF
FD
03
07
F7
F8
15
0E
03
F7
07
ED
04
01
0D
0B
E3
02
08
04
01
06
FA
01
01
04
0E
0F
0C
FB
EC
F8
05
F8
E7
0C
0A
F0
E8
0D
F6
E6
F2
FC
04
E6
0A
F7
FC
00
0C
FE
03
FE
03
04
10
0E
F6
EF
FB
07
0D
0A
FE
10
DD
05
05
F7
F6
FE
04
0E
F5
06
00
0D
02
02
FD
0B
FF
10
FF
0E
FD
08
02
FA
FF
01
09
FF
0E
0D
0F
FC
F6
08
FC
02
FF
08
00
FA
F7
EC
09
0C
F6
01
00
EF
FF
04
FA
0A
06
FA
06
09
0D
07
02
F5
19
F9
04
FF
0D
02
F7
FE
06
14
FA
F2
F2
02
F8
0D
07
F8
04
0A
F2
FC
05
0D
09
0B
F9
06
F0
EE
07
0B
06
09
05
FB
F5
F8
F9
FA
0E
FA
0D
F7
FA
10
07
01
F9
05
02
08
FA
F4
FF
F1
F8
FF
08
F2
05
01
04
00
04
F7
FD
00
03
F8
F0
FF
ED
FD
09
09
F5
FC
06
FE
FF
06
FB
01
0C
04
0A
10
FE
05
00
05
0A
07
FC
01
07
01
F9
EE
EF
ED
09
05
F1
FE
FA
02
00
00
0A
FF
FB
FA
03
F5
FE
F0
0B
FD
FA
F7
F0
F8
ED
F7
FA
F1
F5
FF
FE
F2
F9
FC
F7
FE
FD
08
0A
FB
00
FF
F8
F9
00
F9
FD
FF
FA
F5
F6
FA
F7
02
F7
F9
FB
F3
05
F4
F8
00
F6
01
04
F4
F4
F0
FB
ED
F3
FA
F6
02
FD
01
0B
FA
FD
0A
05
07
FA
0B
FF
FC
02
F3
16
FC
04
0B
0D
0B
0A
08
05
0B
03
FD
07
0E
FE
0D
02
F9
E9
17
F0
03
03
03
EF
DB
FD
0A
04
FD
FE
09
07
EA
FE
0A
FD
11
F9
FA
11
0B
F9
10
05
10
02
FF
06
FE
FF
09
0C
0D
F9
04
0B
F8
0F
FB
FA
F9
EE
05
00
01
F8
E9
01
11
FA
0D
0C
03
FA
FD
ED
FE
F4
DF
F2
08
05
F1
07
F8
0A
07
FF
01
05
FB
F6
01
01
FF
F6
04
14
0A
FB
11
0B
04
05
11
00
F9
00
FF
00
FB
12
08
00
0C
02
FD
06
05
FE
05
15
FC
07
F8
0D
F6
FC
0E
03
FD
14
01
02
EC
09
0B
FD
EF
08
09
F7
09
E2
05
05
F8
03
00
F9
FA
10
F8
FA
02
11
FA
FE
10
04
08
10
0D
0C
09
01
FC
F4
0B
00
FC
0C
15
0C
F9
FD
11
FB
02
01
0D
07
03
0C
03
10
EF
F9
FA
03
F7
F1
07
F3
04
F3
0A
FA
06
F3
00
00
EF
FF
FF
F1
0B
0F
06
09
19
06
F9
FB
FC
0D
FB
00
13
01
07
10
FA
0C
FF
01
06
F7
11
FE
03
00
F8
FF
FE
03
FD
03
EC
06
08
FE
0A
01
0D
04
F8
FE
FF
06
FD
F5
FF
FD
0B
0A
0A
0D
06
FA
EE
EE
06
09
E9
0A
EE
ED
00
F4
0C
F7
0B
07
F0
06
07
0D
0A
FA
F4
F6
01
FE
0F
F9
FA
0D
10
FE
12
F4
F4
FC
09
FC
F0
03
03
09
00
1C
10
0D
F8
0E
0D
07
F9
FD
F6
19
FA
F4
09
02
FA
01
0C
0D
07
F3
11
05
01
F6
1D
FF
10
FE
E3
F9
08
03
03
0A
F6
07
FB
09
F0
F7
0D
F7
03
FF
02
F2
0A
FC
FC
F6
FE
06
0D
00
0B
F2
F9
FB
03
01
06
F8
0C
FC
08
F9
06
07
0A
F9
03
05
11
FD
0C
0F
09
F8
1B
FC
EF
08
FF
F9
00
F2
FA
F0
FC
0D
13
09
0C
F2
FE
03
07
03
FE
FA
0D
02
F8
F1
00
FC
0E
F7
07
0E
FB
07
07
F6
FC
F7
FB
FB
FA
0E
07
0A
FD
06
04
01
0A
FD
0D
F7
0C
FD
0A
1C
FD
FB
F2
11
F8
F9
07
11
10
F6
07
F9
02
F6
0C
09
F7
FF
08
F8
F4
07
E9
05
F5
05
F4
F3
FC
13
0C
01
08
FB
15
08
03
05
F7
F7
FC
09
FC
06
FF
FF
0C
07
FB
08
F3
04
F4
FF
FE
FF
04
09
F4
FD
0B
06
F8
09
E7
FD
00
02
DE
01
F9
07
FE
FA
12
04
08
08
F8
FD
07
FA
FD
0B
F9
09
FE
FC
0F
02
EE
FC
03
F9
09
02
03
0B
0B
0F
02
05
11
FF
0C
08
00
05
F9
12
F8
02
08
07
FC
0A
05
F6
FC
F4
FC
FA
F0
F6
FC
F5
01
FA
F3
05
1B
16
10
FD
EC
08
F2
FC
FB
09
FB
0E
05
04
02
FD
10
FF
0A
F5
F5
0A
0A
01
19
04
FF
FB
0B
08
FC
F9
0F
0B
FE
08
04
07
12
0B
03
F4
FC
F5
FC
06
F5
FD
01
F8
00
E4
F7
05
15
FC
F4
14
1B
F2
EB
EB
F7
05
09
FC
1A
FB
F5
03
FC
0F
FF
06
0B
F1
13
02
04
F4
F9
FD
04
F6
03
F4
12
EB
FD
15
08
14
16
06
01
14
16
FE
09
0E
02
FF
FA
F9
08
F3
05
F5
04
0F
09
FF
12
0F
F4
FB
00
F1
17
04
12
F8
10
02
FC
03
FC
FB
F6
08
07
FA
0F
01
01
F4
01
F7
FD
F7
06
03
09
07
08
FE
FD
05
FC
F9
FE
00
F8
F7
0C
07
F4
F9
03
0A
02
FF
05
06
02
F5
F7
FB
04
F7
FD
F6
F9
FB
07
09
F6
09
FA
FD
F4
F4
F9
06
07
FC
0A
03
F6
FB
F8
06
FD
F6
FC
03
F6
FF
FD
08
F7
F4
FA
FA
06
F9
05
FE
0B
05
F8
F6
03
0B
09
02
FA
FB
0B
F4
0C
F7
FF
F9
F3
02
FC
FD
F7
00
07
05
08
F7
FB
FC
FD
02
FE
07
FD
FD
FA
F9
F5
03
FB
0B
FC
FF
FE
02
04
02
F8
07
F5
F6
F7
F4
FB
0D
F9
04
11
00
FC
0B
F8
FB
FE
E6
13
12
FC
F5
FF
06
11
FF
0A
01
0E
0E
08
09
0D
03
11
FC
F7
FD
03
F4
1F
FE
F2
09
F9
FE
05
08
0E
E5
08
00
0E
FD
FA
FB
13
08
09
10
F8
E7
06
F6
0A
F1
0A
02
02
02
12
00
F5
E7
0E
03
06
16
05
02
FE
08
07
FF
F6
F1
FE
F6
F5
00
0F
FF
F3
01
0C
0E
F8
FF
FB
FA
FF
05
08
20
13
04
10
03
F5
06
04
F8
0C
01
09
07
F2
0E
FF
03
F9
FF
0C
0A
F9
02
0F
09
03
09
FC
06
FD
02
05
06
07
07
EF
F4
00
FA
F7
06
02
04
FD
0B
FC
FF
10
FD
02
FE
E6
FD
02
09
FA
03
E2
02
07
F1
10
F6
05
11
08
1A
F5
03
DC
FC
F5
07
15
E7
F7
FA
00
08
02
FA
F4
08
05
04
EA
F8
E4
FD
01
07
FD
04
08
07
FA
FB
F9
01
F4
FE
FF
0B
0E
FF
EA
FE
F9
0C
0C
F1
08
ED
08
02
EF
0E
FE
F7
07
FB
E7
FF
F2
07
02
FB
F2
0D
02
FF
0E
FA
11
10
0D
03
FC
0C
0C
07
0B
05
F6
06
FD
FF
08
1F
00
0A
0E
08
0A
12
F5
0E
03
FC
F3
0D
F8
0B
F8
05
00
08
06
FD
FF
02
E9
F3
0B
EF
02
FF
EE
FE
02
FA
F7
04
09
08
F7
08
0F
05
FB
FE
02
14
06
FB
08
FB
0C
FD
FF
01
0B
FD
10
F5
06
07
FF
00
05
04
FF
08
FF
0D
11
FD
E9
0F
04
0C
04
FF
F8
F6
03
04
00
08
F3
0A
FE
E3
F7
03
04
FE
00
0F
F9
FD
EC
FF
09
14
04
F6
F7
F4
FC
F5
0D
FB
FC
00
16
F3
FF
07
F8
07
02
F5
FD
FF
08
FE
F6
FD
F7
00
01
06
FE
05
03
06
0C
08
F4
FE
F5
01
FD
06
FE
02
F8
FD
F9
06
F9
FF
02
F7
F6
09
0A
03
F4
01
F6
01
03
F9
FA
FE
F6
F7
FE
FF
08
FB
00
F7
06
FA
F6
00
FB
00
F6
03
F5
F6
FD
F8
07
FB
F6
F7
F3
F8
0B
F0
05
08
00
FE
03
F3
F5
03
F7
F6
F4
FD
F6
FB
F4
06
FD
FD
05
00
F5
09
F8
F3
F8
FF
03
04
FE
04
F7
FD
F9
FA
FD
FA
01
F5
05
08
EF
F5
F4
08
02
F9
03
03
0F
FC
02
FD
F1
F3
FD
0D
06
0B
0A
F0
EC
04
08
F6
10
0E
0B
FC
03
F5
02
F6
06
FF
0E
FC
08
03
EE
0F
01
F3
0A
07
EF
07
D8
FA
03
1E
01
ED
13
09
F8
FE
ED
F4
01
01
1E
08
0D
0E
FC
05
F1
08
FE
F2
FC
00
FB
FB
FB
08
15
01
04
09
F1
0D
F9
1F
FF
0F
F9
07
08
FC
08
F6
09
F9
13
F1
F6
11
FE
FA
E3
03
FB
01
20
27
ED
08
FF
07
07
F3
F0
02
F6
FA
04
04
F2
0B
EF
0C
02
05
05
FE
14
02
0D
01
F6
01
03
01
0C
FA
FE
06
01
07
E8
04
F9
08
ED
08
02
06
F7
F8
FD
FA
14
FA
FC
F6
E3
E0
FA
F8
F5
FF
DC
15
07
FD
0C
FF
05
07
FF
19
F6
05
F5
FD
E4
10
1A
F1
F7
F1
0C
F2
EE
FE
F3
12
F0
04
EF
F5
E9
F7
0B
FC
0B
01
08
00
F5
F6
ED
F9
EE
0B
F4
08
F8
FD
F5
0E
00
0D
0C
FC
04
EA
0B
F7
EC
0C
F0
08
0A
FA
F2
F5
F9
18
0E
00
EA
0E
02
FD
01
06
02
00
0E
01
00
08
0F
08
13
08
05
09
0A
00
F7
01
FE
01
00
08
FE
FB
F8
1D
F9
13
FF
F3
F4
F3
FD
FB
03
FC
FC
13
FD
02
F6
0F
10
0F
14
03
F4
FA
0E
1B
13
FE
16
1C
05
04
00
03
E8
FD
15
06
03
08
26
F7
FB
0D
00
FE
15
14
0C
F5
06
02
EE
15
F0
05
0F
FE
F1
FB
05
06
F7
10
F4
F4
FC
0A
01
FB
13
F6
05
E7
0C
F6
FD
E9
0A
0C
FB
E9
FA
1D
23
F6
10
0A
FE
FF
FB
F3
12
08
FC
FA
0A
FE
0D
03
12
05
F5
0F
0A
FC
04
FA
05
F9
02
F5
FC
FE
F7
FA
00
FB
02
F8
FD
F5
FA
F5
F2
02
FA
03
04
F7
00
01
FF
02
FC
07
03
07
02
FB
FE
F1
F1
F6
F6
FD
06
08
F9
03
09
00
F2
F8
F5
F9
FE
00
FC
02
01
FD
03
FC
00
FB
03
F2
FB
F7
FF
FE
FF
FC
01
05
08
F3
FD
08
01
04
FC
FC
F7
08
0B
FF
F7
08
01
04
09
02
F3
02
09
0A
FD
F5
03
0B
03
FE
F7
00
F5
07
07
04
FC
06
F7
FB
0B
FC
FB
07
F8
05
04
03
FE
FE
F5
F7
F9
0A
05
01
0D
FE
F1
F0
01
06
FD
04
FD
07
F4
F7
FB
FE
FF
F4
FC
0A
09
FD
F3
F6
0D
F9
F7
FC
FC
05
09
11
00
0C
FA
04
FC
ED
1E
F8
FE
EF
06
09
08
00
FB
FB
F3
FB
04
FF
0F
F1
08
FB
ED
01
F8
0B
FA
0C
05
00
F6
EE
FD
01
0B
E7
0A
E4
02
03
F0
FF
F3
09
FA
09
12
FA
FC
06
09
0A
FD
0D
F9
07
12
F6
F4
06
FF
03
15
01
01
FF
F1
0F
08
FC
F3
01
08
F9
08
05
FB
04
F0
08
01
F7
F6
FE
14
08
0E
F4
02
F4
FF
04
F4
06
06
03
06
E7
EF
0A
03
F5
13
00
12
10
0C
06
F3
FE
06
F6
04
02
1D
06
FF
F3
FA
F3
FC
05
EA
FC
D8
08
08
11
06
EF
09
0D
0A
07
E5
F7
10
01
F2
0A
00
01
FB
F6
FF
FB
05
F0
08
FD
11
FC
06
EC
F9
04
ED
0D
0A
02
08
07
0D
0A
FA
F5
13
F3
0A
FD
08
16
FD
EB
FF
F9
0C
01
02
04
0A
01
F9
0B
F4
07
02
F5
07
FF
E9
FC
00
00
FE
F8
F4
02
FD
F8
F7
04
12
FF
FC
F7
FD
FB
FC
06
FF
0A
0A
FB
0D
F8
00
02
0B
F6
F8
06
F9
F7
F6
06
02
06
FB
FF
FF
00
03
07
01
F8
01
EE
06
03
08
FA
FA
01
F3
FB
05
07
FA
F9
F2
F8
F7
11
FB
02
FD
05
02
F6
FA
F1
F7
01
FB
FD
F8
03
F1
06
FE
06
FE
09
08
00
FF
FF
F8
FC
01
01
F4
FC
FD
06
03
FC
FA
0A
F9
02
F1
05
F8
01
F3
F4
00
FA
FB
07
04
FF
06
0B
F3
00
F7
FD
FB
0B
09
FA
FD
0C
08
F3
03
0A
F7
04
F1
FA
FA
12
00
05
02
01
09
F9
FC
01
F7
FF
FE
F6
08
F8
F8
FE
14
FE
0A
F3
F5
F9
01
F5
0C
FF
06
F6
0E
E5
F1
E9
F8
06
1F
12
F4
14
15
03
FE
FB
F9
F1
EE
FD
04
FE
02
F3
FF
F4
EA
F2
11
FE
13
F8
EE
07
E2
FC
07
F6
0C
00
1F
F8
0B
0E
0E
0D
02
00
17
00
FC
0C
05
0E
EC
FF
FE
F8
F9
09
06
E9
F9
18
F6
00
EE
0F
EC
E5
0B
14
0A
FC
16
0E
FB
FF
FD
0C
02
0B
04
05
00
F8
13
FA
0C
F0
06
01
F4
06
F2
FE
FC
02
F4
F1
0A
F6
05
00
01
F4
04
0A
0B
03
EF
F5
FB
F0
FC
08
0C
F8
00
02
FE
FB
06
FA
0C
0B
0C
FA
14
02
F7
F0
F9
00
F9
FC
FE
EB
FF
0B
F4
F6
02
F8
F8
FC
0B
FB
F7
11
FF
FB
F8
05
F5
03
EC
FF
09
07
F8
FB
FC
06
00
F8
02
FC
FC
FA
EE
F3
FB
08
F5
0C
FF
FC
02
FC
08
F1
08
0D
F1
F8
01
FE
FA
FA
F3
07
F5
03
FD
F9
F5
F9
F1
07
F6
06
FD
09
F7
05
F3
FB
FE
F2
FB
F8
00
F9
05
03
FE
09
FE
FD
FA
FB
03
00
0A
F3
08
FE
F9
F7
07
F8
FB
02
FA
05
F8
08
00
F3
03
06
01
FE
0A
00
F5
06
F6
FE
F1
06
08
0D
F1
F3
FA
03
FD
F7
FB
0C
F6
F8
FD
06
FB
F8
FA
F1
F3
02
F4
04
F4
FE
F6
00
FC
03
FF
FF
F1
FA
F4
00
00
0B
F2
08
04
08
F9
F4
FF
F5
F9
FE
F4
02
FE
01
F5
F4
FF
F9
01
FC
F4
FC
F1
FD
FB
FC
FE
F4
FF
F8
06
F8
FB
F7
F6
FA
FF
FF
F8
FD
F9
FD
06
02
02
FF
F8
F5
00
FB
04
FF
FD
08
FC
02
02
FD
F7
FE
FA
FA
05
00
00
F4
F8
09
F4
00
F9
01
FF
FB
F4
08
FD
F8
01
09
FD
05
06
09
FC
FB
F5
03
02
F7
04
F3
02
08
FA
FB
FD
02
07
03
F2
F8
FD
F5
F6
FA
04
FB
00
06
F9
F5
01
FB
FE
01
FE
FA
FB
08
04
02
FB
F6
F9
FB
0D
09
F3
FD
FC
FE
F3
04
F9
04
F9
FD
07
02
F7
FD
F6
FA
F9
01
F7
FD
FE
F6
06
F4
F5
0B
05
0A
0A
F8
03
FC
F8
02
02
FC
FA
FD
F0
11
FF
F8
F3
E8
F9
FD
00
FB
05
F8
16
12
01
ED
FA
FA
F9
FF
0B
FA
08
F9
F0
07
0C
08
12
10
07
07
FC
F9
0B
F7
06
19
0A
01
0C
F5
FA
F8
FB
FA
F6
FC
F8
00
FE
13
0E
04
F4
FC
0A
08
FD
F7
13
F6
01
F4
F6
07
F6
F5
FF
FC
E8
04
06
05
F1
F5
EE
ED
07
E9
FF
FB
F7
0B
FC
F3
F2
10
05
15
07
0D
11
02
00
11
13
0F
15
0A
F5
F6
F4
FB
04
FD
F9
FF
03
F6
0B
06
0A
F9
03
0F
10
04
F9
FF
00
04
F5
05
01
FE
0B
F8
0A
F4
F4
FE
F1
F3
F5
FD
FA
07
F6
00
F7
FD
F7
08
FE
F6
00
0B
F7
FE
F8
F2
0C
F6
01
FF
F2
F5
F2
0A
07
FF
F6
04
01
05
FD
FF
06
F1
F9
F8
F6
FA
FF
01
FC
01
F3
04
09
07
F6
F7
F8
06
FB
F6
FD
FC
FE
07
F7
09
F7
03
06
F9
03
02
FD
03
F5
F9
FA
F9
02
05
F7
03
06
FC
06
F2
F5
F9
05
F7
F9
08
F7
FF
02
01
FA
F9
04
09
FD
02
01
07
01
FF
FC
FB
F8
0A
F8
F1
F1
FF
FE
07
04
F5
FD
FE
08
07
07
FE
FD
F6
04
FA
FE
FD
FE
00
F6
FE
F7
08
EF
FA
F6
F8
02
FE
07
F9
F9
F9
FE
F5
08
F5
05
FA
F1
F8
02
02
FC
00
FC
08
FB
02
03
F5
09
FC
08
F7
02
07
F6
07
F6
01
FF
08
00
00
05
F3
FE
F7
F3
F0
F5
01
F3
FA
06
F1
F5
FF
08
00
FA
09
FE
FC
F4
0A
0B
F6
04
F9
09
FA
FD
FE
00
00
FC
FA
F3
FE
FB
02
FA
FC
0A
F6
F6
F6
F1
FD
FA
07
F3
F7
FF
07
FE
18
16
F3
02
00
F8
15
09
FB
01
0A
05
0F
FE
E7
FF
F2
FB
14
02
02
FE
FD
F4
03
04
F2
09
05
0A
EE
01
FB
05
0D
F5
00
0D
E6
F4
03
F4
FA
FE
1A
0B
10
08
08
FE
06
0C
F9
E5
08
13
F7
F8
01
FA
08
FB
05
02
03
06
F7
11
FB
F8
FC
F9
0F
09
00
EB
0E
07
16
FE
01
03
04
01
09
0C
1A
FB
07
FF
00
0C
FE
05
1C
FF
FA
00
04
E5
00
F6
17
12
0F
EC
0F
FA
00
F5
F8
F7
10
F6
FF
0B
F8
07
FB
0D
07
03
FC
0C
03
F5
00
FF
02
05
07
F9
FD
00
F5
0B
15
01
F5
01
FE
F7
F9
FE
00
0E
14
11
01
F5
F8
F2
FD
EA
0C
FE
10
01
EB
E8
FC
15
02
FE
FA
07
13
E9
01
03
F9
F0
F1
01
F3
F9
1A
FA
03
F8
05
F8
03
F8
07
02
0B
0C
07
09
01
13
09
EE
03
0B
F6
F6
05
FC
01
F3
08
02
F4
0A
F9
15
07
FB
F6
05
FE
07
D6
0F
F2
EA
03
E8
09
EA
08
00
0C
FC
0C
08
05
06
F7
16
F9
F9
03
0F
11
03
03
FC
FE
F6
F4
0B
0D
0E
EC
09
06
F8
FF
F5
0D
02
FA
0B
11
01
06
FA
04
05
07
FF
FE
F5
0B
FE
FE
FE
1D
FF
16
F6
00
EE
01
FC
F2
0F
06
F7
09
FF
FA
06
FC
10
02
FD
00
09
14
1C
10
F7
0D
FA
01
10
07
0E
FE
09
FE
03
0D
ED
11
F5
0E
F4
ED
F5
F6
FC
03
FA
F3
FD
FE
20
FC
0C
06
FF
ED
0C
08
F8
01
06
08
18
0B
10
03
0E
F9
02
06
F0
FE
01
FF
16
FC
FD
FA
02
FF
FD
02
F5
FF
FA
08
0A
FD
02
14
F6
F2
FF
06
03
07
0A
02
04
03
FE
F4
02
05
F4
05
FA
09
04
05
FC
FA
0A
01
03
08
FF
F5
06
0B
12
FA
07
F9
0C
EE
F6
FB
03
0B
07
FB
0A
F6
FF
04
FC
09
02
FE
F0
0C
0B
07
0A
F6
0D
F7
01
11
EE
F8
06
F6
05
00
0A
FF
09
F4
07
F5
FF
F8
FE
12
10
04
F7
09
F6
05
FA
F8
03
04
0A
F6
FA
0C
F8
09
F1
02
07
FF
10
0B
FB
08
1B
06
F9
06
17
FD
01
0E
01
04
F8
06
01
09
0C
EF
F4
06
14
F8
0B
03
FA
06
F1
12
02
0E
FF
FC
FF
1C
05
FC
08
09
FF
0D
F2
0C
04
FC
F4
05
F9
03
08
F9
ED
FC
06
F2
EC
12
01
0B
18
E7
0E
0A
FF
FF
F7
1A
F7
FE
0C
02
08
0C
EF
04
FC
05
0D
04
04
F9
04
07
12
F7
F6
F5
08
0F
02
15
F6
0B
FB
05
F0
00
F4
ED
F9
F8
FC
0B
04
FF
09
F9
F3
05
03
1C
FB
FA
10
10
19
04
07
0F
00
EA
FF
FB
F0
F6
11
FB
FF
02
FA
03
03
02
0C
F2
F7
FF
02
07
00
06
FA
04
04
03
02
F6
09
F8
FA
02
FA
F8
04
0A
04
EA
FC
0D
F4
06
0A
08
07
0B
00
FD
FA
F4
EE
FB
FF
04
05
F8
08
00
F6
EE
06
E8
1A
01
F1
00
06
14
08
F8
0B
F8
03
0D
15
E9
E2
F9
00
06
EE
FB
FF
FD
F7
FD
FD
FF
07
EF
F2
02
F5
F1
0D
F6
10
00
02
0F
10
03
FD
0E
0A
02
EB
0A
FA
10
0A
08
F6
F1
0B
12
0F
14
EF
00
1B
04
E5
05
19
14
17
0A
06
F9
07
05
FB
01
0B
06
F5
FB
F8
E9
F7
0C
14
FB
00
00
01
03
F9
FF
04
FB
F8
FD
05
F8
08
05
FD
F6
08
FD
F7
F6
03
FF
02
F9
05
FD
FB
09
F8
00
F7
00
F8
02
F4
F4
FA
F6
F6
0A
FD
00
FD
FC
07
FD
01
05
03
F9
06
09
02
FA
FE
FC
F8
FF
F8
FA
FC
0A
F4
FE
01
FA
FD
02
03
F6
F7
F5
FF
FD
04
F4
FB
FA
F9
F8
FC
F5
F8
05
00
01
FC
F8
06
F2
F5
F3
FC
03
02
05
07
00
02
03
FA
F3
03
00
04
08
07
00
FC
08
FB
F8
F9
F8
07
F6
F7
0A
FA
04
00
F6
FD
FB
FB
F1
FE
00
FF
FA
F7
F0
F9
11
0A
09
0A
F6
F7
0E
F8
FF
F8
FF
05
F8
09
F6
01
11
06
20
02
FF
09
F2
F4
04
F5
07
05
F1
F7
F9
04
0A
19
09
0B
ED
0A
14
0E
12
08
04
09
0A
12
02
F7
07
09
F9
0D
0E
EE
00
FD
05
E3
F0
F9
09
09
14
09
04
02
07
1B
07
0D
FB
04
F7
0A
EB
FA
15
04
F1
EF
0F
03
FF
07
FF
0E
FB
08
FC
01
FA
F9
FF
F6
05
09
05
FC
FB
EF
08
06
00
06
01
00
02
03
03
FB
FD
09
F5
0A
F8
FC
F6
FB
09
0F
06
02
0B
0D
ED
FB
F1
FE
06
00
02
02
0D
F7
03
06
F2
FC
1D
08
15
F9
F1
FD
19
09
FF
02
EE
0D
07
FA
F7
10
0D
12
F1
F7
01
E8
DE
F0
FE
FC
08
F0
FF
FD
0C
03
01
08
FB
07
F4
0E
F9
08
FA
FD
05
17
02
00
08
08
0B
E3
06
F0
07
F1
FD
09
0A
01
14
F0
FD
01
00
FB
E0
11
0C
06
FA
0C
09
06
01
FA
FD
F4
FC
F6
FD
03
F9
0C
0C
F1
03
0D
03
FC
01
06
FA
F6
01
02
00
0C
F8
04
F7
0B
F9
EA
FE
0B
0E
08
00
02
07
F7
F9
F0
09
04
11
03
F9
F6
FF
06
11
FD
07
F4
00
09
07
FE
05
0A
03
FB
FC
FA
F2
05
FB
F1
0C
00
00
01
FF
FD
05
F0
FE
FF
0C
0E
F4
FE
02
F4
03
EA
08
04
F4
F8
F2
09
00
FF
05
F9
FC
FC
04
18
FF
F8
09
F1
13
FB
FA
07
F6
0C
F8
10
FE
FC
07
1B
F8
00
FA
05
0B
0B
06
F8
05
FC
0B
0A
07
0F
08
04
FA
F4
0E
0D
08
0B
0F
02
F2
F8
F7
F0
E6
09
F6
01
F5
FA
E4
05
09
00
F3
07
08
04
F5
F9
0B
09
FE
12
00
0B
FF
06
0A
04
0D
FC
03
05
05
E7
01
07
FD
00
FD
F9
E9
05
F8
FB
FA
0D
E6
F5
FC
0F
06
0C
08
F8
FE
ED
03
F4
F6
0C
FA
04
F1
09
ED
0B
EE
01
03
EC
F8
08
17
F8
F9
02
0A
F0
F6
07
FC
06
FF
FC
F9
FA
1C
09
F2
EE
14
FC
ED
07
1D
F8
F6
10
F5
FB
03
FD
FC
05
04
F8
00
EF
02
EE
00
01
E8
00
F9
06
FE
01
EE
FB
F7
F9
FF
0A
09
F7
05
03
EE
FA
F3
02
04
FC
F4
FA
FB
FF
FE
09
F6
FD
F3
F7
02
F4
FA
F4
F6
0E
03
F8
F7
FA
05
F6
04
00
07
04
F9
FA
F9
FE
FC
FF
F7
00
FC
08
FA
EA
EF
FA
FB
FE
F7
08
00
02
FD
F0
F1
FF
07
03
F9
EC
0D
F4
F6
F1
08
04
F7
FF
FD
FE
FC
F9
09
F5
09
05
F1
08
F4
FC
F8
E3
F8
03
FD
01
F7
00
00
0A
FA
FE
06
FD
01
01
07
F7
FB
06
02
EF
07
03
FA
F9
04
06
F4
FF
F9
03
FD
06
F5
F7
F6
F6
FD
FF
FC
0E
08
02
FA
F8
07
0A
0D
00
F8
FD
06
F5
FD
FC
0A
0B
12
FC
0E
10
FA
F7
07
07
F7
10
05
F3
F9
FA
0D
FB
0A
0B
00
01
10
1B
07
FD
0C
F6
02
E9
0B
0B
06
1A
F8
0B
F6
03
FA
EA
07
F8
08
FD
FA
10
09
FB
07
FC
F6
FF
EB
FF
F6
FE
0C
F7
12
F3
02
FE
EA
FE
0A
12
12
07
10
0B
FB
F3
FC
FB
F6
FA
0B
FC
F9
FA
F6
00
FA
FD
F7
FF
07
0D
FA
0C
05
08
0E
0B
01
08
06
FD
09
00
0C
FF
04
FD
07
FE
04
FC
11
08
FC
05
FD
01
FC
0B
0C
F9
09
05
FA
F5
EA
03
F1
FD
02
F1
03
04
0D
E6
FF
FF
07
FF
FD
FB
01
FF
F7
06
06
0C
F8
06
EF
01
F9
12
02
F6
08
EE
07
0A
03
FC
01
14
08
13
0C
FE
18
FD
0B
FE
F7
03
FB
07
0E
E2
FE
F3
FE
04
FC
0A
02
06
FD
F1
05
E4
EB
FC
02
FC
0B
FC
00
0E
0C
FF
01
F5
0B
FF
0C
10
FE
02
09
05
09
0B
02
F4
02
0B
00
02
0F
F9
F8
03
ED
01
F4
02
FF
FE
09
05
EE
03
0B
02
F4
04
FD
02
FA
F6
08
0C
0F
04
00
FD
FB
08
01
FD
13
F8
FC
04
02
04
FF
04
F6
04
0D
09
03
FB
F9
07
FC
EA
FD
F5
FA
09
10
0B
FA
FC
05
F9
FA
FE
05
09
12
03
04
0A
F7
06
EF
F6
F7
0F
01
08
08
FC
0E
1E
FA
04
07
FF
08
13
03
FA
0F
16
F5
0D
05
0B
F9
14
F6
FB
04
F6
F8
02
04
00
0B
05
F5
FB
FF
12
F1
08
FE
0A
05
FF
F8
05
ED
EF
08
FE
FC
08
02
05
09
0B
00
06
FA
FA
11
06
FE
F3
05
FA
F4
06
FC
04
03
FD
F3
FF
04
01
02
EE
EF
0A
FB
F8
FA
02
35
F9
10
02
0E
FF
15
F5
E8
03
F7
EF
FE
15
0B
F4
01
FE
F9
05
FC
01
03
00
0F
F5
0A
01
05
F7
E9
FA
03
F7
04
04
F6
EF
FF
FE
F3
05
ED
FB
0A
E6
F9
F6
00
F3
F8
F9
02
06
07
11
FF
F4
05
0A
0C
03
FE
FF
F0
EF
07
FC
FB
FA
07
FB
04
FD
F5
07
02
08
F6
05
F8
F7
00
03
08
08
0A
08
F1
FA
FF
03
FE
FE
FC
07
E5
F6
F9
FF
F7
07
E8
FC
08
0D
FF
FD
F8
00
FB
0A
01
EF
F9
EB
F9
15
FD
F9
ED
01
FD
FB
FF
03
03
F7
02
FD
F9
0B
F5
F5
02
F8
03
0E
05
04
FA
FF
F2
F7
0C
02
FD
07
06
08
FD
F5
04
09
04
F9
0A
0F
F4
FF
07
FA
F9
F3
06
FB
07
06
0A
02
F9
FC
F8
10
E4
06
02
02
FB
F5
04
FB
F9
F2
E5
F3
09
F8
06
07
01
0A
0B
F5
00
03
07
08
0B
F9
03
F3
0A
07
05
F8
02
FD
FF
07
FB
01
05
F5
01
02
02
06
F5
0C
0F
11
F8
03
0B
13
04
00
FB
10
0B
02
07
F4
EC
00
FF
0C
0D
FA
FB
E8
06
14
09
FC
FE
FC
0A
F3
0C
08
01
07
0E
E9
05
0B
06
FE
F8
09
F1
FA
F4
06
FC
03
0F
06
03
0B
12
FB
1F
F8
0B
04
E6
09
0D
0C
00
FC
02
02
06
0E
09
FF
04
F5
FF
06
02
F8
FA
02
09
E8
10
FD
F2
E5
FB
F0
01
F1
14
02
01
02
FA
02
0D
04
F9
11
08
07
F2
F4
01
F4
0A
08
05
E8
FA
F8
FA
09
F8
03
02
F1
F2
F5
11
DD
04
F9
F8
F4
F9
02
04
FF
E6
EB
FE
06
FF
0C
F9
F0
F8
F6
F3
11
FD
16
00
00
F5
03
08
02
00
FF
F8
11
00
08
EE
F9
F0
F7
F5
FC
0B
F5
05
F6
F9
F0
F6
F9
F4
FD
06
01
F0
FF
F7
03
00
E5
0A
F7
06
05
04
E9
00
F1
09
F2
08
08
F5
09
F1
F8
FD
05
0A
FA
F8
F3
FB
F1
06
06
04
F5
0B
FE
FC
0B
00
F7
04
F9
FC
FC
05
02
F0
F9
08
02
F4
F9
02
F3
FD
16
F6
FC
FE
06
F7
00
FE
0E
11
F5
08
0A
04
09
05
F4
05
09
06
02
07
F9
05
F8
FE
10
04
F6
0A
0A
F4
FF
0F
15
05
EE
E7
0D
0B
05
F7
13
0B
03
FC
01
03
F9
05
0C
05
14
FF
FC
FC
EB
FE
FD
00
0A
06
0D
ED
0C
FC
F9
17
01
FE
02
07
0F
01
F7
09
03
FE
FA
0C
FB
F0
02
E7
09
08
F8
F4
02
18
F3
FB
0D
FA
11
01
23
0B
FB
0F
0E
01
0D
FF
FD
02
FE
0A
14
04
F4
F6
FA
00
FD
00
00
08
02
09
FB
0C
05
03
FE
0A
FC
FB
F1
18
F7
07
FD
08
F2
03
F9
05
07
00
01
0A
0A
FB
05
0E
F7
18
17
05
FF
FF
05
23
F1
F5
0A
0B
F6
04
04
F4
10
FE
FB
09
17
00
0F
0B
FE
0A
03
09
09
07
0A
F8
FE
FF
F9
0C
EF
F6
02
07
F5
FD
FF
0A
03
07
FE
06
F8
F8
07
05
FB
FF
FB
0D
FE
FE
F6
F3
F8
FB
FA
EF
FA
01
17
02
04
08
E4
F5
0A
F5
EC
0F
03
FF
04
01
07
0E
01
03
02
13
10
04
07
02
00
F2
FE
04
F9
02
08
08
F6
F8
F7
FE
FF
FB
FF
F7
EF
06
09
06
0D
0B
FF
0A
0D
FB
F5
FD
FE
16
07
07
0A
00
17
FC
F2
F4
07
01
09
09
FC
06
FE
08
FB
FF
07
FB
00
F8
F7
0B
07
0F
ED
04
01
07
0E
F5
FB
F9
0B
00
FF
FD
0A
F5
16
F5
F2
01
ED
FA
F2
04
FD
F7
EC
05
FD
08
FD
FB
FB
00
05
0A
00
12
FE
16
09
11
02
1A
FA
F9
EF
F9
F1
00
22
F9
F8
03
F9
FD
FD
F9
F0
F8
07
FF
FC
FF
10
FF
0D
0D
08
09
03
ED
09
F7
F5
FE
09
ED
04
12
FF
06
FA
F9
01
03
FE
0B
07
F6
0E
0E
0F
05
10
09
F2
26
12
0A
1B
FA
F9
0E
FC
FD
0F
19
FD
E8
03
0D
F4
03
16
FB
FD
0A
0B
FE
01
10
02
F6
02
F6
FA
F7
08
FA
0D
19
F6
0E
14
FE
09
F3
F4
FC
05
F5
F2
F8
00
F7
FD
00
07
09
FE
F6
FE
EF
0B
14
0B
F8
EE
FA
03
12
1D
24
01
FA
E2
F2
F7
06
1B
09
02
03
03
05
FA
00
E6
0B
0A
08
FF
F5
00
FF
FB
11
08
FF
11
FC
FB
FE
FE
F7
08
0A
FD
05
01
0A
05
F6
FA
F4
01
04
0A
08
0A
07
FF
F8
F5
DD
0B
00
10
0A
00
FE
01
25
09
00
10
FE
FA
06
05
F2
FB
04
F7
02
00
F2
01
FF
0B
10
0C
F7
FA
0E
E9
09
08
0B
F1
0F
FE
F5
05
04
07
13
FA
07
09
FF
07
FD
05
12
EE
02
ED
FE
F4
00
FE
F7
FC
02
FE
FF
FA
F3
F4
F7
11
F1
21
06
16
0D
0B
FA
FA
F3
09
01
FE
01
04
07
13
FF
00
0C
11
FB
FE