F7
EA
E4
EB
FF
F0
E9
01
04
E5
EE
ED
FD
FA
09
F6
16
F2
01
F1
09
04
FF
0D
EA
05
F1
F3
F8
00
FB
01
06
06
FA
04
E6
DA
0C
E6
04
0C
16
0D
07
00
F9
08
09
FE
00
FC
01
E9
F7
FE
F6
15
F8
04
E4
EB
0A
E9
02
ED
FF
0C
F8
F2
EB
EB
13
F1
E0
14
F5
06
D3
00
0F
0A
08
07
0D
06
0D
FC
0A
01
FE
FB
05
F5
FD
14
26
F6
03
01
E4
F3
F5
18
E8
F9
04
ED
0A
F6
E7
FB
EA
03
19
E1
E9
10
FB
E3
EF
FD
0F
F2
02
F6
0A
04
F8
0E
01
14
0C
00
0F
EE
F8
0F
F5
FF
09
06
09
01
F5
04
DC
04
E8
02
00
FE
19
09
16
FB
F2
00
0E
13
F9
F3
F6
0C
03
F8
0A
16
FD
EF
F3
09
03
09
01
F1
F9
0C
FE
EC
ED
F6
F6
F2
15
EA
05
10
13
03
EF
0C
F6
0F
07
11
F8
09
13
E2
10
12
F5
F8
03
00
06
FD
11
04
FC
FA
EA
04
E6
E7
EF
F1
F7
FD
0A
05
ED
F5
F7
FC
F6
FC
F9
09
FC
F2
0D
F7
F7
08
0C
F7
E6
F9
E3
FA
0F
F3
05
07
F8
0A
FC
F4
F5
0F
00
12
F5
04
F4
00
08
F0
0A
F4
06
0C
D0
07
08
F6
03
15
FA
F3
11
0A
E3
01
07
08
FF
00
03
FB
FF
EC
FF
09
FF
11
FE
FC
0C
FA
F1
F2
0A
CF
EF
09
0E
EC
E6
0C
FD
12
F2
03
FE
F7
F5
EE
00
06
07
0F
EE
0D
EF
E4
F7
04
E3
EB
09
FB
FB
01
FC
FA
09
11
EE
F3
F5
12
0C
E0
04
02
02
F7
EA
05
13
FC
FA
0A
F7
0A
F3
FD
02
F6
F7
FC
F6
08
09
FC
13
01
00
08
F1
F6
F9
FD
10
10
EA
F8
05
F5
09
F2
FB
EC
0E
07
FB
10
0F
01
E4
14
EF
FB
0E
EC
FE
F9
04
F7
05
FF
F9
FD
10
F8
FE
09
0C
17
04
EF
ED
F6
F5
F9
08
F1
FD
F0
05
E7
FB
01
E0
12
E4
01
FA
10
F1
FE
F3
10
F4
F6
EF
E5
01
EA
F0
F9
03
0B
E8
0D
03
01
F5
0C
05
09
06
09
14
F4
FC
F5
FB
00
FA
04
02
FA
0C
F0
0D
FA
EF
F2
F6
F5
F3
F5
10
ED
0D
F5
0F
FB
04
D6
01
F5
07
F4
01
EF
EF
0F
0E
0F
01
F1
02
15
06
03
02
F0
F2
FC
0F
F9
F9
F3
F4
F6
02
0E
0F
F6
0D
F4
12
F7
15
EC
14
F6
07
FD
F4
E8
E4
F3
FB
00
0E
04
FE
00
F5
F6
F0
EB
F7
05
F1
FF
08
FF
F7
0F
00
11
F6
F8
02
E3
F1
DC
DE
05
E8
0A
03
FB
F0
F6
15
07
EE
E8
03
EA
F7
ED
05
00
03
F0
DE
0E
11
E6
08
08
01
FD
0A
0B
DF
F3
11
DE
07
F3
FD
F4
00
FA
FD
06
06
E7
FA
EE
E7
F3
E3
EC
FC
F5
01
12
02
13
D9
F3
F6
FA
F2
02
FC
F9
F8
F8
05
0B
F9
F8
E6
FB
DD
FE
16
0D
EC
E9
FA
08
05
0F
0A
0E
14
04
0D
E3
0A
06
07
ED
08
08
E5
0E
00
06
EB
02
03
02
00
FD
F8
F6
FF
12
E1
FB
02
0B
03
FE
06
04
F6
0A
ED
F9
F1
EC
00
0D
FD
F7
F3
06
F6
0F
10
F4
09
FD
00
FD
F6
0D
08
EA
F9
07
F3
F2
08
F3
0A
F0
06
F6
EF
0D
FA
F2
03
DC
02
FA
EF
F5
0C
05
08
11
0B
FE
F0
0B
E7
0D
EB
15
1A
04
0B
15
04
06
FC
01
01
F7
F8
02
F6
DF
FB
FA
09
13
F4
FB
04
E7
03
F0
F7
07
E8
00
EF
12
FD
FB
FF
09
F6
E5
08
FA
FA
05
F4
07
04
E7
E6
09
D2
F9
FC
F0
F6
1A
FE
06
FF
F6
0B
08
06
F6
0A
F6
15
FC
FA
07
09
03
06
FD
EC
0E
F8
07
F1
F7
EC
0E
00
02
FA
0B
EE
10
04
00
08
10
DF
07
10
14
00
F8
F7
0A
FA
0E
F9
FE
14
FF
09
F5
FA
0E
0A
08
FB
0D
FF
FE
10
EE
04
15
F7
F4
F5
F5
FB
04
F0
EF